/**
  ******************************************************************************
  * @file    network_failure_data_params.c
  * @author  AST Embedded Analytics Research Platform
  * @date    2025-03-26T22:42:30+0100
  * @brief   AI Tool Automatic Code Generator for Embedded NN computing
  ******************************************************************************
  * Copyright (c) 2025 STMicroelectronics.
  * All rights reserved.
  *
  * This software is licensed under terms that can be found in the LICENSE file
  * in the root directory of this software component.
  * If no LICENSE file comes with this software, it is provided AS-IS.
  ******************************************************************************
  */

#include "network_failure_data_params.h"


/**  Activations Section  ****************************************************/
ai_handle g_network_failure_activations_table[1 + 2] = {
  AI_HANDLE_PTR(AI_MAGIC_MARKER),
  AI_HANDLE_PTR(NULL),
  AI_HANDLE_PTR(AI_MAGIC_MARKER),
};




/**  Weights Section  ********************************************************/
AI_ALIGNED(32)
const ai_u64 s_network_failure_weights_array_u64[5699] = {
  0x3cbb0ffc3cdd7f53U, 0x3e73075b3d7da7c6U, 0x3cda208a3ea38f55U, 0xbe2bc63c3ed62070U,
  0xbeeec32f3ca465aaU, 0xbc8a1f92bcb8f17fU, 0xbea64bc03eb4971aU, 0x3ea4afb53ea5f92aU,
  0xbd45e5e6bde24461U, 0x3e93362a3e482c09U, 0xbe9a8f24bd790b59U, 0xbde3db573d1ef548U,
  0x3d1cffefbc29cf8eU, 0xbc331367bf3dd0e2U, 0x3bdb38963a8382c9U, 0x3ddf2e573e2dec4bU,
  0xbdc6f3fcbd94a056U, 0xbf0801423df0ab94U, 0xbd22ca1c3eb8aca1U, 0xbe92ef1b3b9f6cccU,
  0xbece9340be257085U, 0x3ea825fc3e5000fdU, 0xbe52e4ebbe3096eaU, 0x3e5494843e23ce40U,
  0xbc97b68b3c43bfa4U, 0x3eb6e68c3e941aaaU, 0xbc77b98cbb5b065eU, 0xbbe234d7bbb62d14U,
  0x3e36bcc83ce483f2U, 0xbd9cfbc23e91870bU, 0x3eba2882bed4c91dU, 0xbdd2c3c1bea917a2U,
  0xbd3a062dbd81a6efU, 0x3e25d3c4be2c487bU, 0xbe6cd86ebafaa3ddU, 0xbed187bbbe4153fdU,
  0xbc0ce2853e7c7df3U, 0xbed46b573eaa5ab1U, 0x3e891802bde4e547U, 0x3e381fe9be087269U,
  0xbcfb984bbcc6089eU, 0xbd9277e23edd5845U, 0xbc90ac713b66821bU, 0xbdf7d9efbe3a35baU,
  0xbc3ee4043ec96341U, 0x3ed299403e27874dU, 0xbeb122d13c8aa1fcU, 0xbea3c6d53cb3aa8dU,
  0x3f096b3c3e78fe9fU, 0xbde774d33e440dc6U, 0xbe5986c1be824503U, 0xbe3654483ec5fdb6U,
  0x3e6a280d3e68f2c4U, 0x3e938d123dc54769U, 0xbc1f76d53c95b790U, 0x3dda5a603d9c963aU,
  0x3bada1213f068236U, 0x3cd54dbcbad061f0U, 0x3def00113d9e8a08U, 0x3b81733b3f00a1afU,
  0xbf15310ebdc3dd6aU, 0xbdf64e2ebd0f3400U, 0x3e56a4a3be379a3fU, 0xbefd6ff13d9f4f03U,
  0x3df85608bc4b4f50U, 0xbd682a5d3dfc83a7U, 0xbe0e06b8be6e633eU, 0xbe450df03c882354U,
  0x3ebbd86cbe1c14c8U, 0x3c77d0043dda3458U, 0xbc21257cbf09d31bU, 0xbb6bcfff3d1465d6U,
  0xbe88fc2abe081bfbU, 0xbd79fae4bedd5863U, 0x3eb29f2c3e93fb31U, 0xbd998bbc3e02e2e3U,
  0xbda73c58bf23fedaU, 0xbc2482e93cc1e951U, 0x3e8d82a3be705af4U, 0x3ee39f033e848ad6U,
  0xbeaaadf83deb83acU, 0xbf21a07f3d172a04U, 0x3e0d9af03d8496f6U, 0xbe483d94be7f43adU,
  0xbed8f4423eba36acU, 0xbdab7fb8bce2c63dU, 0x3b7114e53c5beffbU, 0x3e212587bef2f431U,
  0xbd4f7c913dc1ffafU, 0x3e65b9883d7dca18U, 0x3f1ac30cbdfb5ef1U, 0xbe6196a7bd6ec27aU,
  0xbd8d57a73e1065d7U, 0xbe89f8e93eb7dca9U, 0xbebda734bd8c200dU, 0xbe7f0a9bbdbbe0fcU,
  0xbcbf6b95bb83be93U, 0x3ec3c1493e4343d8U, 0xbe10abe23e4d4fffU, 0xbed753fa3e8d12caU,
  0xbeb7b8d7be2fd612U, 0xbe0d497fbce5ded1U, 0x3c2fc7ecbcf1848eU, 0xbb783a07bd8f3defU,
  0x3c336deb3efab887U, 0xbccedfeebc7cfaafU, 0x3ea427c33e85acdcU, 0xbc79d025bceb97faU,
  0xbe70ee4b3edb6e9eU, 0xbd870c61bebe77e1U, 0x3d9f43ab3e70ac63U, 0x3efe8d42bed09225U,
  0xbdc20931be60a64bU, 0x3c850a913d3ce31cU, 0xbec6dd873e4a52d0U, 0xbd65ca993e22eff8U,
  0xbd9870febe04d59eU, 0xbec5c6af3f03f461U, 0xbd06dd54bcc04244U, 0x3c9079bbbca61953U,
  0x3ecaea61be9e7bbaU, 0xbe98a51dbe755bccU, 0xbe07152abc760dffU, 0x3e75da293f01b448U,
  0x3e0f9895bd4b7c33U, 0x3dc0040dbdbed14aU, 0xbe918f583e842713U, 0xbed01d9dbe6afca2U,
  0xbdc174cf3e22180bU, 0xbef4aec63ecd828fU, 0x3bba43a13d851818U, 0xbe9517a7b98bc104U,
  0xbe4357d4beb6fef9U, 0xbe92618bbe7c2de3U, 0x3ec433f3bdfa112fU, 0xbec1aec33efeb02cU,
  0xbcc300f3bd34837eU, 0x3ca3e106bcb51992U, 0xbdc144d23e8779b5U, 0x3e60384e3e136c48U,
  0x3e5001c23e6e674aU, 0x3e70e6c1bde2703aU, 0x3c7c6f323e26c00eU, 0xbe22e4063ecbba2bU,
  0x3e45a08f3f2e824aU, 0x3db42d813d8a43abU, 0x3ddc46e7bc323276U, 0xbedb8165bda84dcbU,
  0xbda442c1becfb51bU, 0xbe73c389be1059bdU, 0xbd531b713e01fc2eU, 0xbd1f3875bf1df45bU,
  0x3cbff0463ca3f9edU, 0x3e1ad1eabdc71592U, 0x3e3558e53e9e4ef5U, 0xbdf108493ed5c934U,
  0x3d3fdccbbd318569U, 0x3edd49433e1cff07U, 0xbd2c4e6d3e09d8f4U, 0xbeeea8763ed2c6adU,
  0xbda7fe4fbe381c5fU, 0xbd6cc56d3da0c66eU, 0x3bad7219bbf245f5U, 0x3da6c4dd3d6de935U,
  0xbc70ce293e1fc9d1U, 0x3d25fd4e3d8dc97cU, 0xbe06fb89becf40e6U, 0x3e08805a3ea0a286U,
  0x3d29fe8bbe5b39a1U, 0xbe078e2dbdafd156U, 0xbe8057bb3f02143bU, 0xbd5071503e0ace06U,
  0xbc9d15a9bf0a8f20U, 0x3c055fda3cf770beU, 0xbe6e113d3e8f737cU, 0x3eba15853eac019cU,
  0xbda114cebda03a3cU, 0x3ca7634f3d8f94e2U, 0xbd8e38ddbeaf73e9U, 0x3dbd36a93ec7c03bU,
  0x3e1f6b27bee87cd4U, 0xbd19ff54beb1b232U, 0x3dd1647dbe388372U, 0x3c5915c1bc8c6789U,
  0x3e6124cb3d227d40U, 0x3e298d533eb9a312U, 0xbea488f93eadefd6U, 0xbe715696bd8829e8U,
  0xbf0201f43d07971fU, 0xbeb686a63f3835d2U, 0x3d6588293e0640a7U, 0xbcccc4b6bd0b5acfU,
  0x3e5ecec3bddb2f4eU, 0xbe4dd6ab3d6b279eU, 0xbc9dbb833e86a8faU, 0xbe53fbe0bebca3e1U,
  0xbe952d86be099e21U, 0x3e3b5a983dbb26eeU, 0x3ec74100be2ec8f1U, 0xbd73e199be253ba3U,
  0x3e4eb1583b53b884U, 0x3ddb3b3ebef4510aU, 0xbe70cd14bcfa7f66U, 0x3ea0a819be1cbe42U,
  0xbccff761bc95fcd8U, 0x3c83363dbc031540U, 0x3d11ae933ef42a54U, 0xbe3a540b3d723905U,
  0xbe8f8b59be64e5c7U, 0x3e94f828be70c5aeU, 0x3e1c959ebee0ed5bU, 0xbe1278e4bd9997d6U,
  0x3e08a7423cb74d99U, 0x3c9f98e5bd27d7b8U, 0x3eca6eae3e0d1d6eU, 0xbde6603f3e22fd34U,
  0xbef600db3eb3207dU, 0xbdbd5718beb01197U, 0xbdcda6f03caa2da3U, 0x3d1f757abe26c76dU,
  0xbdda2ff0bf43ac1eU, 0xbcfdc9d93d3361ffU, 0x3d1be8c2bd632d23U, 0xbf0c9085be4ff0a4U,
  0xbccb2b2e3d5f2608U, 0xbecc20603f160bd2U, 0xbbe10850bcf6ea5aU, 0xbcae2d10bcff96e2U,
  0x3e06614c3cbda5dfU, 0xbe8b4058bf379290U, 0xbd23fa2c3d91d2f2U, 0xbec8e34e3f0387edU,
  0xbcc446d4bde7e4daU, 0xbc72969dbd20b11fU, 0x3e2d890cbe1d6a74U, 0x3e0faf573e07decbU,
  0x3e8d027d3ed4478cU, 0xbef0b8043ef03f42U, 0xbd0b50823a809e69U, 0xbd82b245bc2bfdebU,
  0x3c2c3653bd005927U, 0xbd37d939bf40f834U, 0xbc3ba7523c5bf30aU, 0xbd6cb2383d199366U,
  0x3eb9ed2b3e963180U, 0x3bb21160bc1e0bbdU, 0xbdb6e2233b4de5faU, 0xbe85f277be576110U,
  0x3ef3435b3e7b66daU, 0x3e861cb3be095f14U, 0xbe2001cf3df93855U, 0x3d49b83b3e56c0ddU,
  0xbe8169393e8a7775U, 0xbeb06917bdd90f46U, 0xbd6bd5c23e876806U, 0x3c159632bd29fac2U,
  0xbd99de91bd80d898U, 0x3d025f323e1e5a72U, 0x3ec9e1a7bebd809aU, 0xbe161d7dbdadd9bbU,
  0x3ea57109bbf07f91U, 0xbe11f2613d9bc8b2U, 0x3cbaf081bf2fd306U, 0x3ca5a1aebd21bd48U,
  0x3bec5b5f3bc1e81aU, 0x3e7106723eab8bbaU, 0xbe2614be3ee141b7U, 0x3e460e2b3dca4e09U,
  0x3ef57ef23e61def4U, 0x3deda350be0b0339U, 0x3ed06e88bec06adfU, 0x3e015fa7bdbcf23dU,
  0xbe1765393d85dfc5U, 0x3e7fbe51be81b79bU, 0xbda5d647bd158cb5U, 0xbe66c54e3e9ac6f6U,
  0x3e2af002be50dc97U, 0x3ea911863e98c586U, 0x3e5af8da3e514c3eU, 0xbec7dd3ebe7b183cU,
  0x3d75daac3e3d8942U, 0x3ddaa208be804a0bU, 0xbc9603863e5e9707U, 0xbe970a8ebed888f3U,
  0x3d7703ea3dc58d67U, 0xbdc63d5d3d280e12U, 0xbedc86afbe63c82dU, 0xbcd6de7d3e780a9dU,
  0xbc5710bebde6da6cU, 0x3de745c63e8b886eU, 0x3e90c7e9bed4a616U, 0xbd683ad8be43db94U,
  0xbd0feed43e458b01U, 0x3e968830bea58e5dU, 0x3e34c1bfbe4161abU, 0xbe0c0cbdbd372be6U,
  0xbe03afe6bf0f5ccfU, 0xbc3e1be73d1ab9dbU, 0x3ee6b66a3e93dfeaU, 0xbe27c66d3e302bb1U,
  0xbf13d507be394e02U, 0x3d89fdabbd9bee69U, 0xbe95f116be6d5bb5U, 0x3e28d71fbe41dd6fU,
  0x3eb425053e9937b1U, 0x3d820b75bdb7e32fU, 0xbdcdc474be824b57U, 0xbe990cf9be8ce1b3U,
  0x3e4437343dad5b5bU, 0xbeaafc783e414574U, 0xbdc72ffbbf19ce97U, 0xbd86ceeb3d59143dU,
  0xbed30bb33ef88da2U, 0xbc3c2ca4bd9db0c9U, 0x3d0b8805bb8ac86eU, 0x3d037307bc88fa35U,
  0x3c72bdadbdb7401cU, 0x3d08bf633eecf8a9U, 0xbe760016bedef98fU, 0x3e1564673e74c2beU,
  0x3e624fb73d83ec49U, 0x3d1fff14bdbc1156U, 0x3e8ac2b43e8f11f0U, 0x3dab72ad3da474b1U,
  0x3e17422bbe8939a5U, 0x3e252cc5bef958b7U, 0xbe657503bd245f20U, 0x3b93881cbc773492U,
  0x3eacb7c33e8b9b9eU, 0xbc9810a4bc78a1e9U, 0xbce0624abbf284e7U, 0x3ea4d9913e9cc5b7U,
  0xbdd1d71a3e7526d5U, 0xbd208745bd18afacU, 0xbd55caaabf46da65U, 0xbb851a793bb83d0aU,
  0xbdc482103e9653d2U, 0xbec8b893bcac04baU, 0x3e274f5c3e42f499U, 0xbe1c8bcbbccf2787U,
  0x3e32c6703ea3abc9U, 0x3d10f81c3e775f9dU, 0xbecb6fe33f329b5bU, 0x3dc115553e10cae7U,
  0xbd0ea6263ae66d54U, 0x3e649acdbeb27fe0U, 0x3cb9d6343dd66228U, 0xbeaf70503ce5f8e4U,
  0xbd1e5ababe73c316U, 0xbe24f371bd47ce6cU, 0x3dd586cb3e937634U, 0x3e630cb0be904533U,
  0xbe812c69be9d95dbU, 0xbe6b137d3d5ffb9bU, 0xbcb4cb783c69b0dbU, 0x3eb1325f3e96c299U,
  0xbcc9ebf1bc988aadU, 0xbc8b1218be4da492U, 0x3e8c6b953e9d4504U, 0x3e8b07f8bd2b0a95U,
  0x3e044aa9be1e9df3U, 0x3d8f59c5bc4da577U, 0xbdd5f8253ec12bbeU, 0xbd1e20933e441ac9U,
  0xbe606a0dbf2c902fU, 0xbe06f2903dea7cc2U, 0x3ccd4e38bdb7f662U, 0xbd379e0abd2b8a80U,
  0x3d03c2db3ea43dbfU, 0xbeba228cbd8f0645U, 0x3e7fc7e7bc6c4648U, 0x3de556783d9a10edU,
  0xbe53ac74be9cc2c4U, 0x3e33e680be7606cbU, 0x3eded14a3e6ccc98U, 0x3e7c6610bed4c97dU,
  0xbd4e377bbec0cca6U, 0x3dca8d38be3c682fU, 0x3ca2224cbc99bfa0U, 0x3eaba4aa3e8f9e67U,
  0xbc0efb0abc18bc71U, 0xbe6934373e593cd1U, 0xbec1709ebe778565U, 0xbdc013bf3e82b3afU,
  0xbce21946bf2eabd3U, 0xbef9b764be40af8aU, 0xbedb7530bf06d420U, 0xbede5831be2a7c04U,
  0xbf197ec3bf0261dbU, 0xbef8f2a73ddd7b58U, 0xbf2091c6bdad46d6U, 0xbeb00f11bf1d8d83U,
  0xbea89414bdb46517U, 0xbf2e248abf2a6719U, 0xbf0ac389bec5eb7dU, 0xbf095974beea510fU,
  0xbf0af407be4d90ecU, 0xbe899f01be790bbbU, 0xbefbd3a4bedbe6ebU, 0xbe70024abec9d3c4U,
  0xbe610bf3bf0a960aU, 0xbee63957bf32c39bU, 0xbd142435be89cf0dU, 0xbea67d8dbefce950U,
  0xbf030b0dbe300aa1U, 0xbd519e09be8333adU, 0xbe9ce325be596e54U, 0xbef20707bf1b4f86U,
  0xbed71ae1befeb3dbU, 0xbecc7138bf0bc5e5U, 0xbd98eb5cbf26acb8U, 0xbee14ebdbf04a648U,
  0xbf071ab3bec8e98fU, 0xbf17884ebe9c0f44U, 0xbf23e60bbe910940U, 0xbecb3bb9bddfd8adU,
  0xbed13ee1bf2477c5U, 0xbed80c21beeaebd9U, 0x3d760ad4bf2392cbU, 0xbf01c87abefc65eeU,
  0xbea7226dbde05025U, 0xbeba4397bece7a09U, 0xbec0125ebb954fb7U, 0xbddd6b54befa9e2dU,
  0xbef5535cbeefb281U, 0xbf0db8a7be793f2fU, 0xbee0587ebeeec5bcU, 0xbef99d70be775f40U,
  0xbe663e8dbebce42fU, 0xbef42678bc9f615bU, 0xbeec2cbebe4aa33aU, 0xbee6b3acbed74f1cU,
  0xbea0bfdabe16d352U, 0xbed144b0bd996197U, 0xbeba5652be306124U, 0xbec7b31bbeb190f5U,
  0xbf2ee906beaf9cf2U, 0xbef8f43ebea3ff63U, 0xbef56394beea6053U, 0xbeee7798bed92775U,
  0xbf1a3019bec5b9f6U, 0xbf1421b9bea8c9bdU, 0xbe5dcd4abf1401c2U, 0xbe57df44bef99167U,
  0xbe27bcf5bf1e4c8dU, 0xbf1d2ac6bf2da97bU, 0xbe5b7946bd4c7470U, 0xbeed8a36beec345cU,
  0x3ef243243f16c0e0U, 0x3f70fa40c00948aeU, 0xbdcfe6253e347db7U, 0x3f196dc13f15ec13U,
  0xc1499ba7c0ebe5c4U, 0xc09c95c83ee66533U, 0x3bfc80023db712d0U, 0x3eeb983dbf88d0c7U,
  0xbf5dc5d8be1121c0U, 0x3e2ecc7d3f41ea9cU, 0xc158e520c03b0c90U, 0xbef867e2bfaeb8c4U,
  0x3e5d6fb73e836711U, 0xc0c774d5bfe35d95U, 0x3fcbcbf041007a4eU, 0x3ef33a6c3fd802adU,
  0x406864c4c0682f7dU, 0xc0111c7b3ef3ed31U, 0xbfa6fb02bca2c9b4U, 0x3fb3ca79c078f3d6U,
  0xbd4c1cd6c0ac8c96U, 0xbf2820974023b362U, 0x3fa50c22402368fcU, 0xbf05b0b7c08d9353U,
  0x3f0813423f0512a5U, 0xbf854a023f297694U, 0xbf82a771bff18962U, 0x3ea0a551c130ac05U,
  0x3fb0eca0be270ea3U, 0x3f9e0391bfb63f2fU, 0x402718133fc5734fU, 0xbf76b6613eadde4eU,
  0x3fbeb81e3de95a2eU, 0xbf6ff470bf51afefU, 0xbebc94243f0e3853U, 0xbfcf8342410a677eU,
  0x3e004fb2bf2888b3U, 0x409d417bbeba4eb8U, 0x3f9a78b93e91d198U, 0xbed4a55a3cf1a041U,
  0xc0980d813f46e815U, 0x3f8d2def3fc669f3U, 0x4113b6764034b071U, 0x3f264c6a401b1676U,
  0xbf05b422bf2a757fU, 0xc00f52b6be243a42U, 0xc0c2b4913f4da75dU, 0x3fb447d1402bf1c4U,
  0xbfdc80e6bf83b7e2U, 0xc0501139bfac78f2U, 0xbffc36adbf961420U, 0x3ea028de405fadd8U,
  0xbdad10553f0dcbfeU, 0xbe223ee23ebc2a6eU, 0xbfcd13f5bf2ac00dU, 0x3fd150dbc03b8dc5U,
  0xbef62f9b3f37b136U, 0xc005e7003da6d404U, 0x3ee6b18e402d4452U, 0x3f3dd58cc112d4c0U,
  0xbe8c8d03bfbcdfc7U, 0x3fa8f2fd4025515cU, 0x405b28313d274f9fU, 0x40acbecac0c46d08U,
  0x3e7ba152bf8c8679U, 0x3f637f7ebc48e65dU, 0xbf3b26f13e415cc9U, 0xbe4017f83cc58805U,
  0xbf8b49cdc0bc873fU, 0x40097692bf1818e5U, 0xc0df13373e6df655U, 0x3e12b59cc081b526U,
  0xbf0426633e991369U, 0xbffb7ca5c055fb0aU, 0xc08b2f54bfcc583fU, 0x3efa0fcec03f6730U,
  0x3e24f3133f8a1c5aU, 0x3e89bb123de87783U, 0xc0c3bacd4046bd31U, 0x3ff682b23d9347afU,
  0x40ad25703f5ccfcdU, 0xc0e850fcc0437cdcU, 0xbfb2fb5dbdda29bcU, 0xbfd559adbedca59cU,
  0xbf9415f2411fb0e1U, 0x3ee4f4ccbe03a17eU, 0xc059c598c001845cU, 0xbfc276113fc6a32eU,
  0xbfb9490cbf9eb5f6U, 0xbf6bd18fbdf00fcdU, 0x3ec987db3f3e7f1aU, 0x3f4b144bbfcccd90U,
  0x3e77129e3d8c8ac9U, 0xbf5f94053eefb8bbU, 0xbf1f2b95c0ef40a5U, 0xbffa46043ef76ddfU,
  0xc0e2d15fbffba21aU, 0xc0aaec43c0995303U, 0x3fa57384c030731aU, 0x3e031c5fc19b78ecU,
  0x3f8c97af400e973bU, 0xbfbe6f7f3fd540b8U, 0xbfa2b1063e565478U, 0x3fae8e3ebed624b4U,
  0xbe954c153ef1cfb3U, 0x3fc246443e8be1efU, 0xbe9893eb3f2197a6U, 0x3f4159f53f80edaaU,
  0xbe9a403abdceda09U, 0xbfc168203be5d69bU, 0xc023bf03bce848b7U, 0x3f9288fabf248708U,
  0xbf69adcbbd99d733U, 0xbd30f72d3e465376U, 0xc0d843ecbdc4b5dcU, 0x3f5ce61bc07d45cfU,
  0xc0a0f5e2bf454179U, 0xc0e3fe73c04f1f26U, 0xc10556793ec4b347U, 0x3ea5f81ebd064451U,
  0xbef0a37b3f1a665eU, 0xbeffffe43e63daabU, 0x3f54b5f9c1220c34U, 0xbf88a535c0d8984dU,
  0x3dece291c04927d6U, 0x40075d18c047b6e6U, 0xc0d1ff403ef831deU, 0x3e78f1fec132a3a9U,
  0xbf77a82fbfaa71fdU, 0x3f3478813f351d05U, 0xbf4148d3409990e1U, 0x3d9926213e7d16c0U,
  0xc08d627ac0fd0c3aU, 0xbfe6c8713e9e9629U, 0x3f7cd867be4652eaU, 0x3e955149c07cf201U,
  0xbc8474c23e54eca0U, 0x3d93e7bfbf40e5e3U, 0xc0a5f59fbfb1878cU, 0x409211dfbd6b16b0U,
  0x40c54b643db29ac3U, 0xc080397f3e3ff005U, 0x405d3bbc3f5e11d8U, 0xbf27ac673fa68b01U,
  0xc0376985bfe60962U, 0xc0af7574bee9a66fU, 0xbce9ca7b3e816a93U, 0x3f0affe6402b103aU,
  0xbe1fec74410a2702U, 0xbf83b8b5c07b1a0fU, 0xbfed4b7dc00dc776U, 0x3dc439263fd177caU,
  0xc088f074be129e7fU, 0xbf013c2440f19168U, 0x3e27c20cbfc6136aU, 0xbea11742bfe2892eU,
  0x4091617fbf15ce96U, 0xbe4eebccbe110c39U, 0xc0202d27be13dadcU, 0xbf8e91553d44136cU,
  0xbf63e87b4026c674U, 0x409f7834c03693d7U, 0x3c869d5abf63420bU, 0xbf3a8f07c17f8b7bU,
  0x3f630cd93f570b96U, 0x3d8511b84118dda3U, 0x3faa1d2c3fafcd37U, 0xbde4cc733d1a2fd3U,
  0xc059878840823e27U, 0x3fc84b6f3f02bf32U, 0xbf8316a1bff99189U, 0x3ff0f3d3bd0a8476U,
  0x3e92854ebf4008ceU, 0x3ee472343dcc2eb5U, 0x3f6b7947be561128U, 0x403bab3f3ff1c5ceU,
  0xbef2a74ebf46d28bU, 0xbece806abd830ffaU, 0xc040abffc03b2fb3U, 0x3fb84426c0dcefd2U,
  0xbeca0837bee45cc3U, 0x3f3147febf4bf813U, 0xc0a166bc3eff5f63U, 0x4045c667bfe3d31eU,
  0x3e6c12b8bdc67182U, 0x3f3db79dbe6af48eU, 0xc004a62fc0369dbdU, 0xbf987eb7c0a98d1aU,
  0x3f0d763dbfaf393aU, 0xbf2ecc82c0c4c6feU, 0xbed39184bc9b1c84U, 0xc02418d2c02ddf1eU,
  0x3f0ee5f2c0a56f17U, 0xc00285d53f09c3dfU, 0x3f5516473e8837c8U, 0x3f4d0d623f1b9085U,
  0xbf42de2abfd4d299U, 0xc0424adcc0b8b23eU, 0x404d685a3b239746U, 0x3f2f6b66403629fcU,
  0x3da94a9d3d20dac8U, 0x3e360820beab2104U, 0x408180fdc09b8500U, 0x3e47e518c01319bbU,
  0x3fef354cbf6e9661U, 0xbf9800a9bf31b87aU, 0x3fd950613fe84a42U, 0xc00fd5683e100cc1U,
  0xc060b0edbf8ac009U, 0xc0857f5abff7ed9fU, 0xbf81ce0fbeee3f70U, 0x400b2529c08a2a64U,
  0x3ec1656140a6fbe4U, 0x3f5a5f463fa167adU, 0x40a793b0c102d8ebU, 0x3fa65262402d200dU,
  0xbf28c3b23f27c2b1U, 0x3c35148e3c881fa1U, 0x3efbf3133f0c58abU, 0xbe9b02f4c13d494aU,
  0xbf358be83f5f78adU, 0xbfb0a3503debdf94U, 0x3ede8135c002f1a7U, 0x3fb3d4a43de7278cU,
  0x3ee96c5e3eb7d170U, 0xc10ba577406f8187U, 0x3ef254a9400f3b63U, 0xbe8b5d80c0cd499fU,
  0x3f4b00303f8bf0efU, 0x40ab34ba4039d53eU, 0x406439d5bf4143daU, 0x3f3489d7bf174e79U,
  0x3feb6b553f69e53aU, 0x3f73fe713e507915U, 0x40f3f3ad40174ea4U, 0x3f190b724086abfeU,
  0x3c4b5201be80522bU, 0x3fa3bdb0c019fefeU, 0xc0729f573ecd2775U, 0x3f06c82dbf4f70bdU,
  0xc016cd22bf02de9dU, 0xbf81084ebf62b062U, 0xc0845c66bf98c317U, 0x3feb6a9ec1497531U,
  0xbfd0092b401b4190U, 0xc0b88240bf1864c2U, 0xbf8a5b54bd6e2cc3U, 0x3f824a09bf90e443U,
  0xbf562c9f3f5e21b0U, 0x3f8956593fbd331fU, 0xc0ca4c11403f5d3fU, 0x3ec8ce9cbff5036cU,
  0xbd255c8840336f6aU, 0x3f9a7cdc3ea4c625U, 0xc01a7491bef083d6U, 0x3f87996dc05f218fU,
  0x3de55359be32e6a9U, 0xbe95ad8bbe9acc47U, 0xbfa10c593f4b0c94U, 0xbf69900bbf0c3048U,
  0xbfd8a44b40626bfaU, 0x40182247bf173889U, 0xbfcb9351bcdd0d0cU, 0xbe9fb58dc007c9b5U,
  0x3ec75b24bdcc97c9U, 0x3f77f258400c76f3U, 0x3f6f64d5c05002a4U, 0x3fa4bfef3f5c46e8U,
  0x3f62c990bed2ccfcU, 0xbffc97e23e5e2b9fU, 0x4001e4fbc2014a28U, 0x3f5b6df9bfb2de7dU,
  0x3f8d5607beca93edU, 0x3fe62903407315fbU, 0xbf9d8a6ebd3c038cU, 0xc1796b923e5fa334U,
  0xbeee8931c0c8ac83U, 0x3f80a23d3eb02065U, 0xc1471b34c12ffd64U, 0xbf126f013f3fee34U,
  0x3f9ffeb7bd847ffbU, 0x3f73c3253f29027fU, 0x3e7a7e6a3ebd3543U, 0x3fec80aa3f27c711U,
  0x3ec379413df267ddU, 0x3eb993733ec11ffeU, 0xc05e6644c0740cdcU, 0xbf50020abf4cab05U,
  0x3f86ce493f22b0e8U, 0x4004df493fde0365U, 0xbfe79299bf9446dfU, 0xbbb60721c19cc168U,
  0x3ee9e12c3f9eec1cU, 0xc1a58bc0406680afU, 0xc19837db3e98eae2U, 0xbf73781dbf7ef1a3U,
  0x3e12752e3f9f4c93U, 0x3df5896ac0105287U, 0x4081a7523fc4fbf2U, 0xbed1b0ddbfbb426eU,
  0x3ebb90e13f52292eU, 0xbf7c4fad3e217c74U, 0x3f34c1943ec10fc2U, 0x4004b721c0afe0beU,
  0x3f115ae93f1b600fU, 0x3f572dc83f964e4aU, 0x400da982bf3b0a0cU, 0x3ec5ef79c0f001f5U,
  0x3fd429aac12247ebU, 0x403d63b4bf4621d6U, 0x3fcf413c3f30e38cU, 0x3f47640bbe295bacU,
  0x3f8905ac3f0d77cbU, 0x3e2292cebf3048fcU, 0x3e4313fbbfb1a277U, 0xbfcb07ab3fa41ea5U,
  0x3ee475c6bff7e2bdU, 0xbfb6bae8c0dcc8e2U, 0xc0661e42be7171e5U, 0x3eddd39cbeb66fc0U,
  0xbc3ec8e3bf3736dfU, 0x3f3e437e3d45ea4dU, 0x3f32d7ab3f0ad169U, 0x3f71ce1abf6beed4U,
  0xbfa1e53c400790c8U, 0xbffa4b5f3f7ab190U, 0x400f63c5be7a9828U, 0x3bed41bdbebddf87U,
  0xbe864c7ebeb171e3U, 0x3e63d6853fb95e01U, 0xc1acc6513ffd690fU, 0x3f7cb780bd2f7dcbU,
  0x3f8653213eae783fU, 0xc0e5911ebe3bcfd5U, 0xbf8398dcc10547baU, 0xc033e5b63fa21feaU,
  0xc13d20adbe8c6662U, 0x3f6da9a740982bdcU, 0x3f9232a63ffa831bU, 0xbe93260d3fa23c86U,
  0xbf3aa1923e92608bU, 0xbf597ee43fc19d7bU, 0xc0d31f833fa7cd77U, 0x3ec8d40c3f86507dU,
  0xbfd6ad5dbd4b6a6cU, 0xbf3d0fadbf121a5aU, 0x3fad7b323ebc6998U, 0x405ea1b73fe191d8U,
  0xbe5d2c0a3ec86b2fU, 0x40d0cba03f5bd305U, 0xbf9082c3c0082e4dU, 0xbf4958ebbec8c9bdU,
  0xbfcdf0e03fec70dcU, 0xc02c43d43f8dc715U, 0xbe71cf2bbfa86a0bU, 0x3f13453e4093503dU,
  0x3eb7df32bc661b03U, 0x400e13f7c11622afU, 0xc01edf81402026c3U, 0xc046f0c6be776593U,
  0x40608ff83f7de70aU, 0xbfbed5c33f62fb20U, 0xc0d9a4503f81b7baU, 0xbe81b7d43f12a770U,
  0xbd47089ebf1412d1U, 0x3f379d6f3e6ca708U, 0xc03b9bdbbf8b27ceU, 0x3f99bcbfbf074ba4U,
  0x3c32320c3f2e0dc6U, 0xbe44e05f3f51d5baU, 0xbfce7602bfebcf4bU, 0x4038f3cf3fd35dc3U,
  0x40fd571fc0024adfU, 0xbfcf2fbbbea64908U, 0x403461663da0f707U, 0x3f7da4cfbd676da0U,
  0xbfb659903eb0b0afU, 0xc0d2033cc00c3e1cU, 0x3e70d3113eb9493bU, 0xbf0a73443faaf275U,
  0x3fa1c05abfe6377dU, 0x3f89d913c0f0cc43U, 0xc01e9847bdc317d7U, 0x40210ae33f07e1bfU,
  0xbf2c778d3f564fd5U, 0xbd2535353fb18b46U, 0xbe0d1644bec16bf9U, 0xbd036179bd3a2761U,
  0xc0d7cfb4c078c005U, 0x3eb254533e9be24aU, 0xbdaaa34fbe4529d1U, 0xbf30f932bfe146e6U,
  0xbf3bf512bcad9ed3U, 0xbef54d2bbcbd1022U, 0xc18fbbd2c02fb4eaU, 0xbfd6f620bf9964c9U,
  0xbe430fba3e558501U, 0xc05d30cebfc598ffU, 0xbf8be39a404a8bbcU, 0x4006f97dbfe78490U,
  0x407916c5c09b95f9U, 0xc1109e263c696f5cU, 0x3e852b493eafb22cU, 0xbf6352a83f8193c4U,
  0xbf56bc80c0cd1a59U, 0xbe9c1f8e3fbad491U, 0xbfaaffa9bf4c291cU, 0xc0997042bf8fc540U,
  0xbfefd8b2bf3036a4U, 0xc008fd09beca26e6U, 0xbf217b12c05764e1U, 0x3f121697c17ac907U,
  0xc031b6b5bf444d28U, 0x3f89c47c3fcce611U, 0x40249e15bea34c12U, 0xbf3840213ead6a80U,
  0xbf2609bac10a51bbU, 0xbfd7e984c0b011e2U, 0x3d9e8634bfac1949U, 0xc0391e6d408ac8b6U,
  0x3e1f976ebd51a75eU, 0x3fd3467bc10436c9U, 0xbf49ad093e84d0a8U, 0x3eed31c4be998438U,
  0xc04cc7973efa28a9U, 0xc059e3ca3f64820aU, 0xc06478403f285715U, 0xbe06360cbfdabaacU,
  0xbef3f371bfc1a366U, 0xc09840033ea0cee3U, 0xbfe4176d3e425505U, 0xbf5f3e5440864e2fU,
  0x3f11d6b3bebf0b59U, 0xc04d22f03eb8a002U, 0x3f2964c3bf99fb08U, 0xbf8ab474bf6174f8U,
  0xbfbc1ec4bede738aU, 0xc04a834d3e1d128eU, 0xc100fe28bf9aea76U, 0x3c75a08dc02fe374U,
  0xbf48e912bd264060U, 0xc0000de6becb0839U, 0xbf804b93be68e0eeU, 0x3e887532c0a8869aU,
  0xbe58cc18c050a049U, 0x3f18410ec08459e2U, 0x3ea966583dcd5035U, 0x3f8882f2c100bf44U,
  0x3df0669e40dd26f0U, 0xbfbf4840c0377fbeU, 0xbb774a963d188a7cU, 0xbe252b89bfbbd5faU,
  0x405812cec10cd3fbU, 0xc01f8ae63eca8d5cU, 0x3f73eb933cc9ecc5U, 0xbfb5444cc0b14c9fU,
  0xbf875f2fbf694b77U, 0x400f4dee402cb2dcU, 0xc005df74bfab9002U, 0xbd96815d3fb2d975U,
  0x3f4f97cdbebd56ffU, 0xc054c58e3c392543U, 0x3f0ae706c10e8a1fU, 0xbff82e64bf913f18U,
  0x3fa840e23f4cd43eU, 0xc1553d8c4014122cU, 0xbf78caa53f9e7b6bU, 0x405a77133f048179U,
  0x3df05ef2c13b9f91U, 0xbf0f9d473fefc78dU, 0xc02e661a3fdfb6bbU, 0xbe590f97bf6700f8U,
  0xbf79ed333d9710b3U, 0x3f000520bf4e2920U, 0xbe94e8243f106b28U, 0x4015eeac40dc5981U,
  0xbfaa0d12bcee9bd8U, 0x4033c2e4c0120b73U, 0x40d5fd94c03cf5c2U, 0xbef1f9a93e2e57beU,
  0x3ffbcfd03c3c8890U, 0xc0362e77c0a6700aU, 0x3fdb94f8c03a65ccU, 0x3fb14f0441575f6dU,
  0xbd441f4bbf852cb1U, 0x409d166b409e5782U, 0x3f94b5993f0aa5ddU, 0xbfa646233f2cfefdU,
  0xc0bbd78e3ee4085bU, 0x3fa3e3183f68e722U, 0xc0488f2c3f9264beU, 0xbec0080bc0815954U,
  0x3ec52cea3ef8dc82U, 0x3fa9410ebdedc49fU, 0xc07cc4a63ee8c945U, 0x401f2fd73ffffb30U,
  0x3ee0a0eb3f3dd046U, 0x3f46d4483fa73ab4U, 0xc02b6ee4bfc942c7U, 0x3fc0f6cb403fa7f8U,
  0x3fdc7588bebfabfaU, 0xc0a841483e9bac27U, 0xc14003743ef93b38U, 0x3eef74923f62c90dU,
  0x3f6f4c673e8f90b9U, 0x3d1e9f80be8d72f0U, 0xbf78c9bc4056fabdU, 0xbf55c163c174b283U,
  0x3f2ff4c53fd7c17dU, 0xbe96ee33c00d6e95U, 0xc0255b02bdfd660bU, 0x402779edc1542045U,
  0xbe88b9383fdae0a6U, 0x400989a13f3b19c9U, 0xbf8a60c9c0088518U, 0xbfa459d93f62b025U,
  0x400108b140d9209dU, 0xc01d38ed3fb3b575U, 0x3fe694aebe03359dU, 0xbe536b0b40b1b0bdU,
  0xbeac1b0e3eee3beaU, 0x3f85b5213f6181a5U, 0x4055c38b3f6fc15aU, 0xc01e0a78bdf48069U,
  0xbfd5ca473ecf06e9U, 0x3f63b0c03f3537dcU, 0x402eb503c0ffac92U, 0x4011c9a1bf0f5694U,
  0x3f8383ef3b7e36e2U, 0x3f1290cb403a8721U, 0x3f36deca3eb00868U, 0xbfcdd4c83fff42e4U,
  0x3e3b87b540b39278U, 0xbf9367d7c0e73e8fU, 0xbfbe5ee3bdcc3d33U, 0xbe24ed14c078b6cdU,
  0x3f282e303f216748U, 0xbf1ed424bff71833U, 0xc0a810a0bdd3e51fU, 0x401b3632c1010eebU,
  0xc04b5c533bf9d4ebU, 0x3f04355ebef03b20U, 0x40a63370bf851bf7U, 0x3ed60b0fbf527a08U,
  0xbf26cf65be822e3bU, 0xbf417277c13311cfU, 0x3e85da1f3f4bc0a9U, 0x3f95a577419cca5bU,
  0xbf694491c0438415U, 0xc088df5740b37601U, 0xc04bdad23c955639U, 0xbfde61423e5048beU,
  0x3f8dfa4ec005fe47U, 0xbf5d62153e99d612U, 0x410429a2c0ab0619U, 0x3f29c7b8bf4f7071U,
  0xbe8a5e61bf32ba6bU, 0x3fabf80c3f9f7341U, 0x40126e2e400b6d42U, 0xbfef2c5bc006242cU,
  0xbe51a3e33db58776U, 0x3e9094fbbfa69851U, 0x3e8e5675bce5c258U, 0xc07565764003eac1U,
  0x4063c5ffbfc00e5aU, 0xc08625553ef71960U, 0x3f6fd39ebe810c31U, 0xbf927bc73f35c857U,
  0x3e6f45d9bfb3af7dU, 0xbf2b36bc3efef513U, 0xc002548a400c32c2U, 0x40077bd13f9932fdU,
  0xbf31613a401694afU, 0x4020f40f41166c9aU, 0xbf9508a33d360386U, 0xc0b87885bffb22d0U,
  0x3dfcdcc23f3443b6U, 0x3f391d9d3f6272a0U, 0xbdf407b93c45ece9U, 0x3eb7a47fbd658d54U,
  0xbe90b858c0086f8aU, 0xbfdceb5a3f0abf7eU, 0xc100ad93bd26810aU, 0x3eb9690fc0fae350U,
  0x3e1d2222bd87a57fU, 0xc104b18ac0e118f5U, 0x3fdee36c3eee49fdU, 0xbf006a34c017b817U,
  0xbfa26ac13df135adU, 0x3d0110a1bfa4687fU, 0x3f1a8b4f40bcb9ebU, 0x3fc7527e3fa7ae6eU,
  0x3f91f7e83fc6942bU, 0xc08c11e3c13701d1U, 0x4017ef05bf0ffc79U, 0x3f85ace53fa054b8U,
  0xbe2631183c2abd0bU, 0x3e9d3e5040467ddaU, 0x404c61223f36d365U, 0xbf5b9a7d402d067dU,
  0xbedae20ebe87007cU, 0x3e53db7bc07980eeU, 0xbe4588003f1691cfU, 0xc0176305c04e5302U,
  0xbfcc8c953f051e5aU, 0xc0860a043ea64857U, 0xbfc952123efac95fU, 0x3f364bb03df86845U,
  0x3f4504cc3ff14b5aU, 0x3f47cb954046036eU, 0xc0437b6bc09ca1e8U, 0x3fb9ffe4413da35bU,
  0x3f517882bfcfe6a2U, 0x40654c0140aeabbbU, 0xc0a699e2bf0dcd82U, 0x4005b2f4bffaacc3U,
  0x3ec71781bebb2051U, 0xbc684901bf1721e7U, 0x4081e3e4400b0b50U, 0x3e82a2fc404056abU,
  0xbdb1d105befbed0eU, 0xc0c24177be9bc148U, 0x400ffb6abf10744cU, 0x401faf6bc00d48c3U,
  0x3d89aae83f26223dU, 0xbe49269dbfd4a332U, 0x3ebcb15e3f12c200U, 0xbef302f340823b69U,
  0xc16227e0befdd603U, 0xc0315382bdc27624U, 0xc0c8b4273ed9e855U, 0x3edfb8d03f8d96ccU,
  0xbe849ea03f23870dU, 0xbf8c14873f414d61U, 0x3ff3986f3ff802caU, 0x3e57e5adc01448aeU,
  0xbf664726c10598f1U, 0x3f82a284401387b6U, 0x3fe966583ebfe273U, 0x40236731c0319ab8U,
  0x3f07a5633fba569dU, 0xbf05cd38bec5cc57U, 0xbf0c156cc04fa2aaU, 0xbebda455bc5a1909U,
  0x4082275dc0421bdaU, 0x3ff68200bf3d212dU, 0xc0f0c88a3e1480b5U, 0xbf468a4cc0a3eba5U,
  0x3f26fdba3c1fcd27U, 0x3f19bdb83fa4e52bU, 0x3e0ca213bfd880acU, 0xbdf3f2d0bd3ec5d4U,
  0xc0b8c7843e6a1b29U, 0xbfaa099ebef8eb8cU, 0x400f7559410a7af1U, 0xbf487a63bfd610ddU,
  0x409947273f935920U, 0x3eb1720cbfb5e3c1U, 0x3e5bb68f3f5431d5U, 0x3f7fefe8bf901828U,
  0x3ef674d5c13af529U, 0x3f2a1cb7bfb31fdaU, 0x402a3ea9bf2a7e00U, 0xbfb223084021499aU,
  0xbfd9f2273ee6324bU, 0xbf23dc5ac04c2a0cU, 0x3e22b2213eed39ebU, 0xbee4356b408d9e1dU,
  0xc08d31f4bf9993beU, 0xbee761113da45c9aU, 0x402968bfc002c8c5U, 0xbeedecb5bd20b479U,
  0x3f3f740b3d554b71U, 0x4031a1fe4011b01dU, 0xbeb9d6f7be757bfbU, 0xbe72476f411d68f2U,
  0xc082376fbf43af5dU, 0x3fc380e440abf37bU, 0xbfa038b2bfc28ec1U, 0x3ee41b653ee7e00eU,
  0x3f4f23b2c0a61916U, 0xbe563f573e03a86fU, 0x3ef4becbbf300d04U, 0xbfa2153d4033f94aU,
  0x3f09f16ebc2464d7U, 0xc12aefd9bf1025a1U, 0xbda173f53f8e706bU, 0x3fec7ad340c9b60cU,
  0x3f0573503eb188f8U, 0xbe4072f73b56aa10U, 0x3f58a8c3bfde1b5fU, 0xc0d73e2fbf209660U,
  0xbfb3450c4062e618U, 0xbf9d8e4ebe4eac7eU, 0xbfe83d97bffc6ab5U, 0xc0ddbd0a3e0d405aU,
  0x3f9ed1c03f0bf863U, 0x3f5edee1bf160610U, 0xc0be5253bfec6326U, 0x3f6064a6bfe3378aU,
  0xbfe05e39c0910cd0U, 0x3f471f7a4097dd24U, 0xbfc13dcd3dfd5d28U, 0xbfb2b947c0360efeU,
  0xbfc15baebf488e3aU, 0x3fb30d81bf022de3U, 0x3ed39a99bea49e05U, 0xbd50ddbbbf93e5e1U,
  0xbfe745863fbb72b8U, 0xbf7bb9473fc12c73U, 0x3feaf872bd4c9077U, 0x3da4be213fbde63cU,
  0x3ee050debe7f8091U, 0x3ead84a43f473e02U, 0x402f5c57404c5758U, 0x3f1de7673f903fbaU,
  0x3fd635abbf25b83fU, 0x3ef3caac3f221926U, 0xc0a52d4240cbc5bbU, 0xbfb2e66d3f41db1aU,
  0xc0f16d49bf7651c6U, 0xbf58f5f6be8bca90U, 0x400b4a93bfd9608cU, 0xc0a2214f3d08ebfdU,
  0x3bdc9d713c01cfefU, 0xbf4ca6cec08b6e91U, 0x3dc64e3cc087c024U, 0x3f66195e3f7ad035U,
  0x3f3a22003eb1fe44U, 0x3ef027dc3fbee745U, 0xc0d9ae98bf11f7aeU, 0xbfed2eb0c16dbfabU,
  0x3f8066493f3bd94eU, 0xbfee3e9bbf8f1a9aU, 0xbfbe89f3be0e8182U, 0x3f14acbabf0f15faU,
  0xbf9524febfc5275fU, 0x3fe8df14c0cc88e3U, 0x3fd151ab3f8f6d97U, 0xbf6ba7afc12e6fe2U,
  0x3db4f467c05913faU, 0xc0a398b0c0d8f536U, 0xbfe22ae1bf368436U, 0xc0babf69bfd374aeU,
  0xbfbffc84bf24ac87U, 0xbfcaffd4c09a0916U, 0xc08f054fc0907e61U, 0x3eaeffd0c0852192U,
  0x3dbeaa733e2840e2U, 0x3e92a50a3fccae4fU, 0x3f12f5ad3bd06e23U, 0xc02c9a89bff93f06U,
  0x3e8ff9b33f4eeb26U, 0x3e4321d5bf5b4e8eU, 0x3f74d21b3e8d1bdfU, 0xbff44b78c0e80662U,
  0xbf79c2833f77fa13U, 0xbf89b3013ecf7c8eU, 0xbf1e9b4bbe35990cU, 0xbd3301ac3dd08827U,
  0x3f07e1ecbfc04546U, 0x4057e9693ee8f668U, 0x40263b15bff96ea1U, 0x3e407629be937e5dU,
  0xbf17ce2a3fd84aacU, 0x3fb132ccc004ea09U, 0x3fad6503bc6e6f41U, 0xc0d100613f8f5c88U,
  0x3cfc9fb9401fe801U, 0x405b1622c074a250U, 0xbfb0b6bfbebcd1e4U, 0xbf0b45473f07961cU,
  0xbf7a616cc1693d77U, 0x3e13a1c53efde18aU, 0xc0328442bddc354fU, 0xbebd9f28c08ec1c4U,
  0x3f0282123ec12227U, 0x3ed5f29b3d9060adU, 0x3e0a88333e5391d3U, 0xbf0140febffe1518U,
  0xbe9ee7b73f20d804U, 0xbf0f9fbfbeea50dbU, 0xc07e2012c192dfeeU, 0x3de2e518401ca70bU,
  0x3f309bb9be878de3U, 0xc1af23b3c009b827U, 0x3fe814e43ee449e1U, 0xc124191fc022d010U,
  0x3ea35efd4075ac4eU, 0xbe7607b13f7dc921U, 0xbfbda6d93f80ef24U, 0xc00eef2abf01bb01U,
  0x3f8036143ec39066U, 0x3dd19fedbeed0402U, 0x3b172b7cbe1afabbU, 0xbe354407c0f88e52U,
  0xbd8158fabe982ba6U, 0xbeffd59dc0844000U, 0x4067bd8d3eebaad4U, 0xbefcaddebf6dae76U,
  0xbf0329a8bfd55e4bU, 0xbe6d2725407c44e7U, 0xbf60db82bec648daU, 0xbb81835cbf9d6850U,
  0x3eed21553d5d2256U, 0xc11ba1cac0658088U, 0xc1410ef43ebf1cbaU, 0x3fae75f3be5bab38U,
  0xc14eb5213e931e7bU, 0xc0156dcdbe1b9a5bU, 0x408dd6823fc64cf4U, 0xbeeaf64b3f5d2364U,
  0xbe1cbc77bd984f01U, 0xc0c1b4e6be02d394U, 0xbf2fa5c13f125bb0U, 0xbf4e536ac09195f2U,
  0xbf0546b5bf0ec06dU, 0xbe1274cbbec73345U, 0xc03c0723be102558U, 0x3d06b6413f830979U,
  0xbed92fc6c09c8433U, 0xc032eaedbd976428U, 0xc17affb53d86d073U, 0xbf00e2afbf0347cdU,
  0x3db9269abf89ca74U, 0xbf39f7f83f183050U, 0xc01704e7c074dd2fU, 0xbd4764b9c18ab35fU,
  0x3e846678c04eb727U, 0x3fa939833eb7a4b5U, 0x3ea4fd3a3e37d4e2U, 0x3f516bb7c13ca7bcU,
  0xbe74c7553f4b8a81U, 0xc03217ee3f1b83c2U, 0x3f154e5c3f3a28ecU, 0xc0104770bf9a8031U,
  0x4030fcf13ea8ab07U, 0xbf146c5ebd9c0c02U, 0xc02d4485bba2b1baU, 0xbee75b2c409f5f41U,
  0xbdcdbd85bf53eeacU, 0xbdb77a7e407ef05fU, 0x404b253a3ed65ca3U, 0xbe409f93bef1f5e5U,
  0x3f747309bf25383dU, 0xbf9f335a3f15913eU, 0x4020fdb8c1f1c031U, 0xbf4e15d7be730b09U,
  0x3f7079893fda29c0U, 0x3f982959bfe1b0c4U, 0x3e89315bbfe07cb7U, 0xc1791a2fbf98dee1U,
  0x3e9520353ffde761U, 0x3da0d31abe981f10U, 0xc123f3e2bee9f0b3U, 0x39a9eab1bfd67dc5U,
  0x3ee4784d3e0cfd58U, 0x3f59d3cabd84a59cU, 0xc0bdc7ce3f590994U, 0xbfd28eb7411445d9U,
  0x3db6719d3e974047U, 0xc045d5043edc5129U, 0x400676203fdd6c52U, 0x3efdbc9abebe0d42U,
  0x3fe74d7dbfba22e3U, 0x3eff18d2c102da86U, 0xbf9872593fc5e404U, 0x3f6112cf41b3524dU,
  0x3d94dbcfc067fe8fU, 0xc17945c840f64003U, 0xc18cba98bf9ebd48U, 0xbfca1d2b3e1104d0U,
  0x4045b408bd1cbc2fU, 0x3e9333213f0384b7U, 0x4151c3493f42f180U, 0xbf14cada3fe6a365U,
  0x3b7f03923dbe2637U, 0xc03daec73f3bbcf6U, 0x3fa8ab793f063747U, 0x3f376d24c12318b5U,
  0xbe0fd9a53e65ec9dU, 0x3edb4710bf398789U, 0x3d046fd7bd41d827U, 0xc0048aba404aba2aU,
  0xbf84f6d8c04d47deU, 0xbf840c483f0560f3U, 0xbe3d25f23f8efbeeU, 0xbe99589c3fbc7612U,
  0x3e06d9703f267e65U, 0xbfcb5f2ebee3a321U, 0xc032a786403439b2U, 0x3f84495840295e72U,
  0xbfa7a3c6c05f83bbU, 0x3f2621fd411e93bdU, 0x3f9b4c4f3c3878ffU, 0x3f61a10740a098a0U,
  0xbeafbd9d3fadd21bU, 0x4039d4a4bfe50f7aU, 0x3f53392ebf10e976U, 0x3dce4b0abe7050b2U,
  0xbff48251c1a637edU, 0xc0977bd53db3a4deU, 0x3f56f208bc8b2f68U, 0xbf20146cc0437444U,
  0x3d9c396dbdb0457eU, 0x3e78cc16bf01f01bU, 0x4064d3f23ffa34edU, 0x3ed4e74f3f07b28aU,
  0xbe3856af3e0486b9U, 0x3f1cf413be77849aU, 0xbf73eef9c0387796U, 0x3e196a84bf4b3afcU,
  0xbf0a30f33eaccfebU, 0xc1b538c33ec91c19U, 0x3f06b636bec1661bU, 0x3e6bef883d4b6e1eU,
  0x3f6eb08dbfbb8b61U, 0xbfc0eca1bd0dbe70U, 0x40283ee43f66f20eU, 0xbe0690fcbcebee59U,
  0x3fcaded83ed65b6eU, 0x3e77ed6d3f8447cdU, 0xbf70ebd3bfcd192dU, 0xbedeac2b3ff4735bU,
  0xbfa351b43eb7f690U, 0xbecffea3c015fefbU, 0xbd8583d5bdc48cf6U, 0x3cf5e401bfa0d6abU,
  0x3fef54afc04b1a26U, 0x3f909aac3f101793U, 0xbc04354cbf601990U, 0x3e9f7a623fc70aa3U,
  0xbf004530bf94f960U, 0x3f1e6bffc076cc7eU, 0x3fa71889bed21b7eU, 0x3ee2f1ffbd36c3b5U,
  0xc151514cbf44accaU, 0xbffde4fd3d8cc149U, 0x40eecf05bee7c139U, 0xbd7254bbbf750b5fU,
  0xbde69c7fbed3c9daU, 0x3fda4cf1be5c15a7U, 0x3e51c5203e11f7d6U, 0x3fe1a0ea4032941dU,
  0xbe97fb91bf8bd678U, 0xbea0f6c8bfb33785U, 0xc10c12693ee21d74U, 0x3ed246d840b759adU,
  0xbff1e9843d6f49eaU, 0xc14628e83df2335eU, 0xc1c8bf4f3e4d421aU, 0xbf0fcf3c3ef37961U,
  0xbdc51500bed8a05bU, 0xc018bfa83d3f9f00U, 0x4023b5a7408d08d1U, 0xbf04e07ec1bde353U,
  0xbe722ab03d552e6bU, 0xbca5a535403c20bdU, 0xbef11f7e3e21a5b2U, 0x3f84167ec1a49fc3U,
  0x3d8dd17640961ffaU, 0x3f3ca9173f1ba5c5U, 0x3e7e9835be8f5cf3U, 0x3da0eedd3e7a9075U,
  0x4037a27640b74e23U, 0xc094c9273ed4a78aU, 0x40191329beed5f6aU, 0x3ed23e2840d7dccaU,
  0xbfa8f8d93e75c3ddU, 0x3f57e1883fc1744cU, 0xc0d8f50c4013c944U, 0xc0f8affbbd81a921U,
  0xc08059d03f4204aaU, 0xbf5208afbe011aacU, 0x3ea1aa34c0e4f2cfU, 0x3e6c76323e5ebdd9U,
  0xc01fc5313fd33f91U, 0x4023cd3e40cc44b0U, 0xbedfad553f86452eU, 0xc144322f3edecf97U,
  0x3b88ba383fcfa957U, 0xbfbea5c540060a38U, 0xc089f2564009474dU, 0xbf5cbb03c117a0ddU,
  0xbf95ab6d3e7dc855U, 0xbe14f9f7c0ff77a1U, 0x3eb7da263f37d1f3U, 0x3f6607c6c0c24dd7U,
  0xc12b907a3f739120U, 0x3f90101d3ef6d9c6U, 0x3f8da7983f8a75feU, 0x3ee855bb3e8341b9U,
  0xbfa5c6483e3ac329U, 0xc0412e6c409763daU, 0xbf8842954070d951U, 0x3fc3681b3f121523U,
  0xbeb6cc52c0060d25U, 0xc0e57e28c0ceaf9aU, 0xc0d6638f3eb4181dU, 0xbfa2b086beb45e4bU,
  0x4066b674bff3d632U, 0xbf86e01fbf897702U, 0x401e22bc3e1d16bbU, 0xbcf7c8cb3ecfd8b7U,
  0x3e9b0383beb67866U, 0x3efc385fbee9279aU, 0x3f24b5ffbf003d6bU, 0xbf7447033ecce416U,
  0xbe2403703df93051U, 0x3e053570bf83806dU, 0x40169158be9982beU, 0xc039e9c34002afecU,
  0x40d4269fc0e7c08cU, 0x3ff2505f3e978f1fU, 0x40bcf9b8bda6a210U, 0xbfd647a73e402c31U,
  0xbe62ac4ebd44463cU, 0xc0c89149bfad194aU, 0xc0bc3d6bbe83faeaU, 0x3f2c50794097588bU,
  0x3edb608e3f06eb47U, 0x3f8c93df3ef32097U, 0x4013b3233e9eb206U, 0x3ff70b554016de62U,
  0xbd9e9eea4110fc2eU, 0x3fb3ae2f3f6c65eaU, 0xbf882cd53fbaac0bU, 0xbf582114bf318d7eU,
  0x40bbf5393f878ad9U, 0x3f082a6d3f244d5cU, 0x3c7adb403e102810U, 0xbd69c41f40aad3e5U,
  0x3eeaac6dbc258188U, 0x401831403fccc5ccU, 0x3e95a34a3f14b963U, 0xbf73403bbf6d3fa6U,
  0xc092d07a3e3fb5aeU, 0x3f903e9b3ece2cf0U, 0xbf3dc4eac0c288a3U, 0x3e8f78c83f2ab015U,
  0x409070a540072e6cU, 0x3f8f3cf13f367389U, 0x3f09dedc3f18eb45U, 0xc08a8c5340067c6bU,
  0x3e88c230c1029ac0U, 0xbfbad6b2bfeb4579U, 0x3f822686be8ec9eeU, 0xbeac0890402256daU,
  0x3f80c3bd3f0d303bU, 0x3e8749dcc08e2a10U, 0xbf216e814069cecaU, 0x3b4ecefa41144cadU,
  0xc07da7ef3e80fc22U, 0x40216f6dbd82f8dcU, 0x40f7c44b3f8aa03cU, 0x3faf97fec06c3f19U,
  0xc0bd840dbfb6c06dU, 0xc0093b8b3f71f777U, 0x3ded34c440601f8dU, 0x40234b1fc1916b14U,
  0xbdd58ea53d6fcac8U, 0xc0b32c58c0242ef8U, 0xc1214121bd080e6dU, 0xbfd263903fcba87eU,
  0x3d2effacbd9dde4dU, 0x3ed7e692bf036308U, 0xc13298ef4033832bU, 0xbf11dc37c0098083U,
  0x3ed048cbbccca888U, 0xbf1c4d933efc7596U, 0xbf39f37a3f9ce27cU, 0x3f1c4ce2c0b6e4ddU,
  0x3ebed6c43f46bc28U, 0x3fb71ac63da0cf0bU, 0x3fc257b33e90cd9fU, 0xbfbfaaeac04a25c1U,
  0x3f764032c096d4dbU, 0xbe8427bcbea78ce6U, 0xbc9f6bff3e6653fcU, 0xbf6385473f8e5703U,
  0x3edd1d1c3f2048e8U, 0xc0cc85c4401bafffU, 0xbfef2e6cc10baf3dU, 0x3e5c8b5d3f5c278eU,
  0x3e84e085bdf9eb99U, 0x3f97a954c0373402U, 0xbf509a423eaf53d4U, 0x3dc51b9e3fa533c2U,
  0xbf0865abc0678703U, 0xc09f680e3f41fe39U, 0x3dc184efbfa4e770U, 0xbf2b660ebf807bc6U,
  0x3f86c803405c8854U, 0x3cf74263bf8f8b41U, 0xbfa4675bbe0a5ec7U, 0xbffd6b37bc8c2b27U,
  0xbe71d3efbfb3e067U, 0xbf1d19cbbf4626f8U, 0xc0ed84fabf1f4621U, 0xc05ea405bf821c6dU,
  0xbfceda67bf4db840U, 0xbfa902203ec07168U, 0xc04713143f2c76a4U, 0xbf63fc94c0ac3c9dU,
  0x408d66de3e137388U, 0x3fbbdc71bf29bf27U, 0x3fe8b0da3f149212U, 0xbfc7c3ad3ee557c7U,
  0xbf19b5094026cf0bU, 0x3fdfb2073f729c8fU, 0xc04e169bbfd740c3U, 0xbe380d9ec02b40a3U,
  0xbfce50dcbe708276U, 0xbe36fd47c0353c9cU, 0x3fb2ca5d3f2793f3U, 0xbf4f15f3c01850adU,
  0xc036ebc43df16d49U, 0x3f16a5053f75e3e9U, 0xc12303ba3e89150dU, 0xbf4fc01e3f052756U,
  0x3f833486c0f87bdeU, 0x3ed84b5abeffac48U, 0xbd661e7dc034fc16U, 0xbee7fb5c3fc683c6U,
  0xbe9f68743f8654bbU, 0x3ece0e7b3fd11afaU, 0xbf077df93f63a37bU, 0x3fbcfff8c0e34d8cU,
  0x3fc6b4ccbfed660fU, 0xc066ab0a3e9c508aU, 0x40d2e175bfa0058eU, 0xbfed9c5ebf3e8ec2U,
  0x3e67726b3e271eabU, 0x3f8c42b93e694385U, 0xbf526541bffba0afU, 0x3f132dc540b3323fU,
  0x3eb49e20bcb4fb43U, 0x3f388b6d3f04bd1dU, 0xbf918698bf125ba3U, 0xbe7186fe4026d0d6U,
  0xbdc953e9c04a60c1U, 0xc00a8355bfbb89ffU, 0x407d0c123ed2f0c5U, 0xbf1b33633efe59e1U,
  0xbe8d903ebf1902fbU, 0xbff31798bf811d6fU, 0x3f98c382bf57b751U, 0xbff914664089408dU,
  0x3f218155bf488e9fU, 0xc02df2f4c119b786U, 0x3f8665c2bf9983efU, 0x3f6728ee3fa75c26U,
  0x3e497cfa4022eb83U, 0xbe90c6e73f3d00edU, 0xbecf744dc024cf82U, 0x3ead44b43f669b56U,
  0xc0b4cb51406b1aa1U, 0xbf43b0fbbeb53e3dU, 0xbf1372f6be3596acU, 0x3f1dcb9cc0620557U,
  0xbee6bf9bbd700395U, 0x3e99cb2c3ec7aa98U, 0xc0fad5d5c0ba8756U, 0xc09fa247c056c67dU,
  0xc0aaa1973ea46695U, 0xbf7755e7bfa68894U, 0xbea6d2ca40a730d2U, 0x3f349ebdbf0c816fU,
  0x3fd959c3bfac9f36U, 0x3fec12663eb87189U, 0x3f685b7b3de5285fU, 0x40190346c07f9da0U,
  0xbef23ae240bcb69dU, 0x3f72d7453f5c1705U, 0x401f14f4bed77652U, 0xbef02a5a3fc0a275U,
  0xbfcbca2cbe6aa0d2U, 0xbe1b186dc10e569bU, 0xbf7fba06bfc850d6U, 0x3f819f40c19c140eU,
  0xc0e46527bf4572e9U, 0x3ef7eb843f3acb90U, 0x3fed5a6e401fed49U, 0xbec006233f70d8ddU,
  0xc0ee00543f84231dU, 0xc108fe663f7a7b0fU, 0xbfa0e97e3f25f3c3U, 0xbfb52b4440b846bfU,
  0xbe45bc71bfd7e62dU, 0xbfdb5b2dbfe6e6eeU, 0xbf44bf6dbf5ae69fU, 0x3f4c1cf93f2373beU,
  0x40118066c0152be0U, 0xc0099e9abe95b8ebU, 0xc08073193fe61715U, 0x3d3043cc3ff92361U,
  0xbf14261fbe9bb7d1U, 0xc0887d753b3d67d1U, 0xc095824b3f126f75U, 0xbf84abf4c0088113U,
  0xbffa251ebf79d08bU, 0xbfa7ef76bfe6ccf8U, 0x3f8c5240c029434bU, 0xc00f124fc1248c09U,
  0xbfcb3135bf0d9f2cU, 0xbfc3d5a2be85dbf3U, 0x3ffb217dbf97a56fU, 0xc0051fa4bf6c6aafU,
  0x3f22c6473f238f4eU, 0xbf8900cebcdfbefcU, 0xc12d478ac0362112U, 0x3f1d4e17bf871e1fU,
  0xbf8f1a54bf9712bdU, 0x4009020cc0060f3aU, 0x3fabc1063e848b96U, 0xbecc405b403ad67eU,
  0x3e863a54c1038d09U, 0x3f537ec83ebc47bcU, 0xbd2daf9ebe9496cbU, 0x3f851d983db140dfU,
  0xc17b70d5c008d21eU, 0x40213fc03fc203feU, 0xbd8aeed23db1bbbdU, 0x3e9b418bbfaafe72U,
  0x3e7a6fe3bd06f793U, 0x3e546de2bf4bbf81U, 0x3f6acd8a40421db6U, 0x3ee0b3d43ddf2fdbU,
  0x3f3f92eb3d87a007U, 0x3efe56cebf4ff64dU, 0xc04037c2c0dba7e0U, 0x3f1385c240247b2bU,
  0x4015dc21c12a9b86U, 0xc00b11414011938dU, 0x3f33b0c83e7daa0dU, 0xc07c200c3f4a91e7U,
  0x3ed5e2f240f4fecfU, 0xbe5ea4ea40099f0bU, 0xc0b88269bf2dc28eU, 0x3f85772ec018ec05U,
  0x3f11a53f3f2935d3U, 0x3e220d22bed98daeU, 0xbf2fd832c1026636U, 0x3f2778d3c1c756a2U,
  0x3fbad9363e865b7fU, 0x3fb4c0a43ed95efaU, 0xc0abd1b34011ce37U, 0x3efb0478bf381335U,
  0xbce8b1a33eb32647U, 0xc0ad7fee40feea0cU, 0xbeb7df74bf7b29c8U, 0xc0cab7afc15557c6U,
  0x3df72c7e3fb25b29U, 0xbf47dbc7c06cf322U, 0xc09ecba23ee8424eU, 0xbf911fb7bc499a34U,
  0xc0a2ac753e3a2499U, 0x3e77c9603f5c8931U, 0x411239d23fc11176U, 0x3ec20789bf4768d4U,
  0x3e1f08a43dc2d730U, 0xbfbd64573ebf3c31U, 0x3f4b8a07bfb2a239U, 0x3d2c05504074395fU,
  0xba825c6d3f114c66U, 0xc08f8f78be5957c3U, 0x3f5d3ebf3ee0690fU, 0x3fc1b24bbfc533a2U,
  0x4034ec82c0212744U, 0xbffc9454bde43038U, 0xc06b1228beca59f0U, 0x3ed1ab0bc055262eU,
  0xbe45b5b6bbcfbb00U, 0x3f43f6673f5c0704U, 0x3eb3f3f840113379U, 0xbd3989cbc033caf4U,
  0x3eaad5003e1f026dU, 0xbf3a0dfac09f5508U, 0x3fbdfac23e90701aU, 0x3f242384c01f6813U,
  0xbf6c47f2c0cb20c4U, 0x3f3b2064bed5f043U, 0x3fa808c5bd8c25e8U, 0x3f287250bee0fa7fU,
  0xc18a00b1c0c95e62U, 0xbf3f85ed3d7a52bfU, 0x3f033f03be9b6c77U, 0x3e8c1dfac0c5fc6eU,
  0xbedb7be5bd949a7fU, 0xc0022479be77ff0cU, 0xbfb9731c3f3d29cfU, 0xbf852c80c027f862U,
  0x3dd1944f3edbf474U, 0x3e23bf3a3c1b1f1dU, 0xc06187bec12cfad7U, 0xbf660c6b3eba2246U,
  0xc0d6b97cc0b6fd7fU, 0xc152ef8ebfee16a7U, 0x3f3e253cbd62ac56U, 0xc0301c0d3f1c1aadU,
  0xbe70e8b6c0b4ebaaU, 0xbf88301cbfdbf582U, 0xbee81f9c3f13bc83U, 0x3ed4c9923f0d5413U,
  0x3f2d4161bddbfb44U, 0x3eb082d1be85c4bcU, 0xbfa9781cc0af08f3U, 0x3ed80ad0c18ddd1aU,
  0x3f8d13563f0d61eeU, 0x3f557ff2bcd14da2U, 0xc00200bfbd2c6494U, 0x3eb2f52bbf46dc3eU,
  0xbf6efb90bf8c54b4U, 0xc08293d53f833a6dU, 0xbf156a7dc0841358U, 0xc096ec69bfb86259U,
  0x3e36687ebc4f327eU, 0xc00a5941c145e465U, 0xc092544e3d211d4aU, 0xbfae235c3f6dfc75U,
  0xc016dd2c3d8cee1bU, 0xc01125b03f74bdf7U, 0x3d38c5eec0652b6fU, 0x3dfd50ddc04f0e51U,
  0xbf363410be31f5b2U, 0xbf96abd73eebfc81U, 0x3f0280f5bf11d295U, 0xc08edd033fdd939dU,
  0xbf19ffc3bf09486cU, 0xc00dc2b13e45f31fU, 0xbfffa4e7be0a323bU, 0x3f258b64bf6415f2U,
  0xbfed83e0c0056498U, 0xc08bcd243ea3e775U, 0xc1676d8fbefabe9bU, 0xbd2f4daec037077cU,
  0xbf184cabbf51157bU, 0x3f00403bbf0061d1U, 0xc00ea955c02c4ef4U, 0x3efac378c15675cdU,
  0xbc58cf37bfb7f56cU, 0x3ef40796c1279e4fU, 0xbf2403233d102952U, 0xc066980bc10d6cb6U,
  0x3e9c8a69404165dcU, 0xc03b7c5abdf000ddU, 0xc00c252cbe3ce66fU, 0x3f5d25223f6eb321U,
  0x3f161934bf552e92U, 0xbed2e27cc071a47aU, 0xc12add7dbe27de45U, 0x3df22ebcbf832653U,
  0x3f23a792bf293750U, 0xbea736f33f918600U, 0x40af89dabd809fcaU, 0x3f2dbe98c01f8190U,
  0x3fc50d71bd89ac69U, 0x4002a227be8d9b15U, 0xc07ace75be8133baU, 0xbda5b4f8c067668aU,
  0x3f6464863f0b8133U, 0xc0a6c72b3f2b2cdaU, 0xc0e9f2ea3f421151U, 0xbfc10621400f3d8dU,
  0xbdf602e04070ec0eU, 0x400cc12f3cbaa211U, 0xbfbb345fbf13ac6eU, 0xbf891d7340b1011dU,
  0xbefcb772be21187eU, 0x3e9a51f93e2ae259U, 0x3f90985bbe30d4f0U, 0xbf1afd5941001ea8U,
  0x3e26aa233f3789cfU, 0xbec8f4dbbe0e1c4fU, 0x404bc3a03e44f9b3U, 0xbd95df8e3fd3039cU,
  0xbeef6bcec06864e8U, 0xbfcb7a5040b8b557U, 0xbec75c6d3fd3a949U, 0x3ed8f3bd3efa63e0U,
  0xbf1bf8b33f535224U, 0x3f1dacf2c0a9ee7fU, 0xbef9201bbf301c27U, 0x3f984990bf93ebfaU,
  0x3e9732263eda6f51U, 0xc04a03f3befb6f03U, 0xc0cdc0d73e533b7fU, 0x3f5b0b46c0d5654cU,
  0xbf1b0d9b3f4fa58eU, 0xc11d3b8abfa108f8U, 0x403659e23f10fd0aU, 0xbfea977340a9b2a8U,
  0xbf3cc15cbf9e7dedU, 0xbd832fb83f73f4fcU, 0xc046f9f83f8270cfU, 0x3fc62cd3c0851e6dU,
  0x3f6f9036bfdd2bc9U, 0xc0b9f958be960b2fU, 0xc09af711bf3c0df4U, 0x3dbe61ac3f440ac7U,
  0x3fc4a27dbe58385eU, 0x3fd53f7ebfc571b2U, 0xc10484afbf8bf3e8U, 0x3f77227dbfd53790U,
  0xbede2d24c0c15cf2U, 0x3f8f35cac0190071U, 0xbe11a27abe92e340U, 0xbf96dad1c032e72fU,
  0xbc52cf564109c546U, 0x3f140f0fbf59dfa2U, 0xbfd29b1d3ee672ffU, 0x3f2cc3e43f1b7ff4U,
  0x40b4c07bc1028abeU, 0xbe3f5332be76ab55U, 0x3eb90ad73e8aabfaU, 0xbe6243e6be7108a7U,
  0x3f6bfa253ea12066U, 0x3fd7eb053f25b9b3U, 0x3fd93419bfed8681U, 0xbe9b2fdd3f53c60bU,
  0xbfd10f10be0c8b46U, 0x3e9fddda3f2b96fcU, 0xc09bb4fc405d0c4cU, 0x40566decbeca8060U,
  0x3d58c9ea401753daU, 0xc0f86c0e3f9eecfcU, 0xbf81d9cbbeb602fbU, 0x40c4175e3f908a7bU,
  0x3e6f9fa7c1048ea8U, 0xbf8ac5f13f8cf5f9U, 0x40a695d5c0a9a0d9U, 0x3e89af533fc20335U,
  0x3f1d09833e6250c2U, 0x3f3b2554be8991d8U, 0x3f43e4c240000d63U, 0xbe69ce9240f5d20dU,
  0xbf4cf7cfbe69c934U, 0x3f4f2f9ebfc934f1U, 0x408ba033c0397e75U, 0x3fd6d5fdbfd3bef0U,
  0xc03fa5733eb5b05dU, 0x4071439a3e902ec9U, 0x3f87f17e3e7032dfU, 0x3f6d54afc1b8271eU,
  0x3f2876bf3f7d846fU, 0x40ba310540bf67a8U, 0x404ee097beaf20d0U, 0x3ff93a803f2b725cU,
  0xc11018dc3e3fc20eU, 0x3ec62ff5bf8f70b3U, 0xc01f9970bedd22c2U, 0x3e4c19bec007faaaU,
  0x3e76c8023f69de2cU, 0xbf08d5cdbb99893aU, 0xbe7d1e9f3eb4d2dcU, 0xbf1587c7c0ae8133U,
  0xbe780de73f419f97U, 0x3f5b8cea3fbb401dU, 0xc057f5083f4e749cU, 0x3f9a5daabe47a889U,
  0x3f5a6363408d69a8U, 0xc0b52cb2bfba6eb0U, 0xc15ff9b63eb6ba8eU, 0x3f7bfb5d3fc5f80aU,
  0x3f10e3b03e8f9588U, 0x3f72a1cc40241032U, 0x4005ce56c0fadefcU, 0xc0062051c12e4829U,
  0x3ede722b3f16f4e7U, 0xbf502286c1009982U, 0xc09bbc273daa8a6cU, 0xc02c27dbc138acf0U,
  0xbe4f107a3ff41ecbU, 0xbfee83cdbea78d65U, 0xbf5284b23fbf742cU, 0xbfe80cbe3e9d05f1U,
  0xbffd0fde3fb1c0acU, 0xbe9fc3f7bf88046aU, 0xc0db75513cd4f17bU, 0x3dd80b93c12b1e41U,
  0x3ed578d33f102513U, 0xc06322fabf8670b4U, 0x3fa73295bf9294f3U, 0x400a70613e83ad53U,
  0x3f8ed4903f15950bU, 0xbff0ad4cbe33830bU, 0x4031c76a412488fcU, 0x3dfeaffc3e550448U,
  0xc0d7ee6c3fa5d0b1U, 0x3f281f4fbfcbad24U, 0xc010c5ecbd1d8811U, 0x406369f93e84f77eU,
  0x3f1a5299c194fe75U, 0x3ebdabd5c0c93f81U, 0x3fcdeadbbfabf8d9U, 0x3f575dfd4000c5afU,
  0xbe6c8ad63ef9d630U, 0x3ee824e53f1a5944U, 0x3fec35f43e20ddaaU, 0xbf8e725cc180c311U,
  0x3fa8ea62c0beac2bU, 0xc07428fdbebebc95U, 0xbf4f4017c015e67aU, 0x3f3093733f78174dU,
  0x3fd010e73fb9eeb0U, 0x401ecb7ec066b2c2U, 0xc01c67b4c0b668beU, 0x3dde5a6540c1667eU,
  0x3eb5e15a3fea3af4U, 0x40ae6067409ab24cU, 0x40702253bedd3e26U, 0x3fa1864d3d894e39U,
  0x40257ba13f3b6a1dU, 0x3cc5b1f13e5e920dU, 0xc1428a59c02fd486U, 0x3d6e8c39c106bcacU,
  0x3e55a16b3e997507U, 0xc11a4cbe3ebad5ddU, 0x3d4c393d3fc407b3U, 0x3fa926c7bfcca512U,
  0x3ea1ab213e9af662U, 0x3fa527eebecaaa7bU, 0xbf5019e4bf9724bdU, 0x3f08c9fcbf521908U,
  0xc0faaf753fe3eb63U, 0xbf91eadc3f6fb689U, 0x4006a0073eb8f3c7U, 0x3f05b4393f3e6139U,
  0x3ed07fc63eb65f8eU, 0x402a62b63f4c8108U, 0x4001dfa2c01c1c6bU, 0x3f5427e1403a7a9dU,
  0xbe431b2dc0861fdaU, 0x3d096470c12c7050U, 0xbf47b5903ee59e71U, 0xc0945469406c7a6dU,
  0xbea7affa402d74ceU, 0xbfaafd8f3f79d19cU, 0x3eb80f24bd82bc04U, 0xbebf513abfbd2c1dU,
  0xbf66a43c3ea8d3e5U, 0xc04aa8f4bf5ae984U, 0xc0196001be0e5888U, 0xbf16435dbfbdc0fbU,
  0x3f9098cabd427babU, 0xbf6a91c6bf9b3d6bU, 0xbf45a2bebfa4801cU, 0x3fde59de400a244aU,
  0xbf672f1fbef60fb7U, 0xc02b0e2fbccc713fU, 0x3f06c058c1e30121U, 0xbfcaf06c3f3cd95dU,
  0x3cbf5e52bdcbee93U, 0x4090a893bfb258d3U, 0xbf12db943f020e40U, 0xc0dc8315bf9c8023U,
  0x3f4bbd88c0daf90eU, 0xbfe7a402bfb03483U, 0xc146b7513ed88e2fU, 0xbd2c844b40895b9fU,
  0xc004924a3efa0c14U, 0xbe6b941c3ea53a0cU, 0xc0b6dfdb3ea108a7U, 0xbf1ddec240127c24U,
  0x40065369bf6da60fU, 0x3edc3df1becaebccU, 0x3f22dd6a3d5cc92dU, 0x3f5c3f99bfea60c8U,
  0x3ec221933f734e11U, 0x40407b47bfe38633U, 0x3e47e17dc011e6ffU, 0x3eb634073e64e65cU,
  0xbfd7c839c0b9c719U, 0xc10735fc3ef5811dU, 0xc1758defbbc65badU, 0xc05ed7d73dbdeb75U,
  0x3f8e5160bf09b343U, 0x3e656aa13e5cc1a1U, 0xc06c1f02bedab2dfU, 0xbf1513dabec56bdfU,
  0x3ef6fade3e6aa84cU, 0x3ff68ee63c8516c8U, 0x3c39dae03f19fc04U, 0xbe1852253feeff96U,
  0x3f3fb0713c83d063U, 0x3d010c45c018e167U, 0xbfc1c235bf62117bU, 0xc107789040984c66U,
  0xbf7188e2c12804d4U, 0x400b4a3bbd857b4bU, 0x408031bfbeaddf94U, 0xbfc2ff5f3dc15905U,
  0x3f68a514bf91d797U, 0xbf3a7ca33fa728fbU, 0x40ebe0053f28b081U, 0xbea5a2904088a3c0U,
  0xbee90318be99c918U, 0xbfcc0cfa40641a1dU, 0x3ebf1c333dabb957U, 0xc0283b28bde3b307U,
  0xbeb225f440206fcdU, 0xbdd0f64c3fb6bf34U, 0x3f61feebc03a5ddaU, 0xbe8afaf6be0a38bfU,
  0xc06a9ed3c0e8d326U, 0x405d941ebe71069bU, 0x40730411bd8455bbU, 0xbe8ca2f9bfb2a41eU,
  0xbf00a582be8fdde2U, 0x40808bbc403c060fU, 0xc08411a1beabe08eU, 0xc0cbc1b83f8a00c7U,
  0xbf0786773e21d30bU, 0x3fa0cf5e3f1107ebU, 0x3f53bb8cc123f991U, 0xbf9ce8d2bf73c837U,
  0xc0c662afbff1559bU, 0xc111cbb44025eab1U, 0x3ee6f5c5be916c45U, 0x402a02974006b535U,
  0xc017315ac08fc428U, 0xbf0fb3963dcc99f8U, 0xbf91035fbea032f1U, 0x3e9351b13f38dfbcU,
  0x3f79ed60bf792b2fU, 0x3f2b42adc0ed24b7U, 0x3ea397a9c07742efU, 0x3eddecffc160249fU,
  0xc111022f3fd63857U, 0x3e6b27b63f7ea70cU, 0xc0155a2b3ffa3318U, 0xbf8b74ba3f32904dU,
  0xbd8464f7bf5366eeU, 0x3ff6c6423f80bad9U, 0x3f9670064064e580U, 0xbf9e57ef416bc691U,
  0x3e5bc7713fdf859eU, 0xbfb3cae3c0a855f0U, 0xc0815a70bf1db4c7U, 0x3fdd9d4e3f6d6d3fU,
  0x3d8f5ed5bfdc2c89U, 0xbed6f1ad3f0d9956U, 0x40a84fb0c010057bU, 0xbf5b9b8d4067ee44U,
  0xbe00d316bed23d04U, 0x3fd72c02bca72c7aU, 0xbecd953d3f0b2625U, 0xc04704a0c15ca189U,
  0x3eade5043ed02c14U, 0xbe30911a3fc53ea9U, 0x404820613f33bcefU, 0x3fe8812fbe326650U,
  0x3f751b7fbff0b98aU, 0x3c8827d83efc4c8eU, 0xc109cd383fb8da28U, 0xbfaeaa99bf0fc8c9U,
  0x3f2c2ed7bf9e8e5eU, 0xbf0f851dbf933d06U, 0x3f32749440e631b3U, 0xbe67ee66c08b6102U,
  0xbef3d849400c4721U, 0xbf3e1861410c7193U, 0x3fa1d099bcb51ee2U, 0xc0229510c0bd2decU,
  0x3ec7b08fc086091dU, 0x3f3ab07dc0aff4deU, 0x3f668b3abfd59b61U, 0x3fa43e63bf61cf2aU,
  0x3f1c4d6cc1095d0cU, 0xc00e10dd3fbcfd93U, 0x401d28f43e187633U, 0xbea7bc3cc02ebabcU,
  0x3e3f0a8ebddd0c92U, 0x3fa3b664bf3d6a05U, 0x400fb6edbc160c87U, 0x40102682bef70aeaU,
  0xc0a31db3bfbdd6e9U, 0x3c3b94eb3e2379c9U, 0x3fd39be4c0a9a216U, 0xc084562dbe7bea76U,
  0xbfcf4a063f18ea4dU, 0x3ebfef6a3ee55f6fU, 0xbe6ce72d3f04f492U, 0x3fa7f61cc043c2a8U,
  0xbd1a37ec40800b9cU, 0xbe987313bfb219ceU, 0x3f8f08f8c0207028U, 0xbe7d0998beb3904fU,
  0x3ddfe51a3ec772afU, 0x3f3ba9a73bd4557fU, 0xbffa0d553f5bfeb0U, 0x3e07badcbf7810fcU,
  0x3f94d6e73f99ab81U, 0x3f287913c0bcfeebU, 0xc0c1baf73ffb372fU, 0x3f1f46b6bf264363U,
  0x3ee50376bea47fa7U, 0xbf67ac9abee81464U, 0xbc63f896bf1865bdU, 0x3f29c8b1c0aa43d8U,
  0xc0009de9be34d20bU, 0x4058b6d7400d9575U, 0xbf7b13563f358b7fU, 0xbe409ad53d455eddU,
  0xc072b166c03389deU, 0x3f70a4f2beff1dcdU, 0x3f09bc47bf304ea7U, 0xc082d2043f9a4c13U,
  0xbf0c5cff3f259c99U, 0x40117f343f21c292U, 0x3ea0743dbec08507U, 0x3f26511a3e8f57d2U,
  0xbf8dbdcabfdc160eU, 0x3d106b69bff163e3U, 0xc06b77f03f24fb40U, 0xc0455e61c117e910U,
  0x3eaf2afd40318146U, 0xc013bb853e059fd5U, 0xbf582d69bfb489cfU, 0xc064f9e63f24c274U,
  0x3e5d75f1be50f7cdU, 0x40123493be6d06dcU, 0x4050af083efef80fU, 0x3f4921c1c0d05e97U,
  0x3fbfd28f3fd92ce8U, 0xbda457acc09f7a8eU, 0x3dc81ed3bf999ae2U, 0xbf298b80c0b5fe08U,
  0x3dad4fbcbf9dd049U, 0x3f143e5a3f6621afU, 0x3e1cad49c1043675U, 0xbe9106963d543e3aU,
  0x3fa28bacc0514cc4U, 0x3fb791c5c0042ff7U, 0xbf92f5be3da87f35U, 0x3d8f75b3c07d6980U,
  0xbebfeea93d70e39cU, 0x3e4142183f157b61U, 0xc0d2c5ddc00bbf06U, 0xc150f664bf767390U,
  0xc0b8abd5bc483238U, 0x3f1edf26bcb060c9U, 0xc0735ead40a2d801U, 0x3dc799edbfa715ddU,
  0x3f64b2ae3f2bb1ccU, 0x3ed908943ed191d3U, 0xc09032e6bf209233U, 0x3fd2edacbd0b851bU,
  0xbf3ea1743f5335a3U, 0x3f1836913e726daeU, 0x3ff2c8823fe25152U, 0xbf0e57fe3f5c94ecU,
  0x3ec20014bf12d55aU, 0x3ddc76dec111dddcU, 0x3fc960a0c05a4db8U, 0xbe507b8b407dd6bdU,
  0xc154a30dbd37c9feU, 0xbdce59bb3f0f7cf4U, 0xc08a39b2bfa40307U, 0xbc54d7ce3f57a17cU,
  0x3eca960cbf954d84U, 0xc01bd923404ca89fU, 0x3d8e0a37bead9f0bU, 0xbebfdd1ac171f462U,
  0xc006f18e3f248c2fU, 0x402ab24ac0969a89U, 0x3e4c5682bf8b9877U, 0x3ea1e3f1bfc7991aU,
  0xc00a08bfc0b8f6aaU, 0x3d30bcc7bcb69191U, 0xc0b282e1bd4b94ebU, 0xc051aa06bfcb3f4eU,
  0xbf1596b03e7194b7U, 0x3f3db930be20b50dU, 0xbe9f684bbfd3c6afU, 0x3f992a53404719ceU,
  0xbf49de1c3f0346e2U, 0x3f01494a3f234fe2U, 0xbf056d27be45ef99U, 0xbe85a2263f97ab2fU,
  0x3faed20f4000a6d0U, 0xc04e4a30bf4285e2U, 0xc013d5abbeca6ac0U, 0xc05af6893fec9c11U,
  0x3d9dd7f13dc9734aU, 0xbf713747bdd1dc8bU, 0x3e27d7b6bf386ba1U, 0xbf8d2c3cc00ec33dU,
  0x3d7063d0bf1301a2U, 0xbfe380b7c09b270fU, 0xc02d41123e44448fU, 0xbf0e1e3dbfe98dcaU,
  0x3db752c2bfb53096U, 0x3ffee2543ff75807U, 0xbe7245903f220400U, 0xbfa89093be84bbc1U,
  0x3f41964e413e283cU, 0xc031e7333f8f8e94U, 0xbfb5467f3d2b3e0eU, 0xbd31963fc09c604aU,
  0x3f9172fe3df672c8U, 0x3e93ef524064c89aU, 0x3e8d65403e8cd8b2U, 0x4067a542bf27caa8U,
  0x3f1d1b243e767121U, 0x3f2d13573f5509adU, 0xbe2907f74113ce1eU, 0x3e76f6ef3dead8a6U,
  0x3f45792e401735a0U, 0x4112653140206ca9U, 0xbfe079ecbec279fbU, 0x405d4f5bbe8d7849U,
  0x3f02aaa1bf9fd0f0U, 0x3f18bd0bc0588999U, 0x40530c403fa7cbc2U, 0xbf26691540be013dU,
  0x3f0f0ff33ee149ecU, 0x3f5f592b3fd7d3bbU, 0xbc00fb933f948a8cU, 0xbe93fd0440501ecfU,
  0x40a0577cbfef6158U, 0xbf2735633fdd4f80U, 0x3f53a5d33f1c7392U, 0x3f8fe3ccbf80ba13U,
  0xbf901ff7bd024c72U, 0xc0231c07c0bd8aaeU, 0xbf8df655bf9a7114U, 0x3f65647fc115394cU,
  0xbe139df6bf9dcd88U, 0x40de0b56bfe1ef6bU, 0x406c0f09bf80d57dU, 0x3f5c49473f96e579U,
  0x40f8c0bcbf340703U, 0x3eb9c9d63f3f6a80U, 0xc0d2f3213f00bf12U, 0x3ca18ec1c0e418a8U,
  0x3e914dfdbdec2cb9U, 0xc06d3f963f84899dU, 0x3f5357cd3f759cd5U, 0xbfb057a3bfd8cdcbU,
  0xbccf738abb594b8aU, 0x4030b3ddbf6dd9f3U, 0x3f85bfc43f4f6cd7U, 0x3f0daf1ec092cdaaU,
  0x3f8ce99b40bb28f1U, 0x4031859c3ee96cbfU, 0x414f7fd1bd21374eU, 0x3ebd501f3fc3f843U,
  0x3fce1ab63edb0536U, 0xbdf9b761402325e3U, 0xbfd7e54ebea0e4d9U, 0x3f845a5c411bc9fcU,
  0xbee86e933fe63684U, 0x3ea1e4d44094306cU, 0x3b945c333eb94e2bU, 0xc040d69f410ddac0U,
  0x3ea924b7bfde226aU, 0x3ef6ac0ec0013771U, 0xbe25103dbf97d2ddU, 0xbf32cb90bdcfb27aU,
  0x3fb12856c07d098aU, 0x3f15628dbfecde0dU, 0xbf92ea753d370442U, 0xbd552751c0769738U,
  0xbec0c575be511a8aU, 0x403a32d44006670aU, 0x40629b3d3f940f18U, 0xc0a27afc3f47a2d3U,
  0xbf25cd373e0b5ae8U, 0x3ffd7b0dbf201b84U, 0xbf05b772c19fb391U, 0x400ca8ac3f0059c8U,
  0x3f19b6e93e6bfb03U, 0xc023c1143f11e6aeU, 0xc1145c303eef1d7aU, 0xbf68434e3f8db60bU,
  0xc02e2649c131d7f2U, 0xbd9acb943dc5aad1U, 0xc086bd8cbdccb725U, 0x3e89402f3fc8088aU,
  0x405dcaa1bfa98727U, 0x3f53a534c0080021U, 0x3ffce8b53ee180e8U, 0x3e44315b3f449016U,
  0xc0935d163b184375U, 0x3eff6a6dbf6a4079U, 0xbf916dcb4018a71dU, 0xbfa7fed63e110778U,
  0x3fd4a9b13f981b0cU, 0xc032a364c0848681U, 0xbf1becb2bfa84eb6U, 0xbebc0c804078ce83U,
  0xbe5fb53c4011f9dbU, 0xc02b6f22bfbc173fU, 0xc0e90ba33dc63a66U, 0x3f4f46dfbea2529fU,
  0xc0416cccbf176f89U, 0xbf0cba61bdc8bdd4U, 0xc06b3a63be89dcb6U, 0x3d452cfbc03c7fbaU,
  0xbf966bf03f6bd50cU, 0xc0362bf2bf849fd9U, 0x401b2915bf86b4dbU, 0xbf05b75dc104c4a0U,
  0xbf7dcf58becde936U, 0xbd8b07513fba5635U, 0x3fa7fc953fe1c1bdU, 0x4095bf1ebfdbf8aaU,
  0x3fcba02fbf603373U, 0xc00ce9f43e7481e8U, 0xbf9d97bebe4c4cacU, 0xbd3bd9ee3f3d11f0U,
  0x3eb974c03ecc1161U, 0xc0460280c0ce94f6U, 0xbfd555894014a9bfU, 0x3e3acdbd3f0ebff2U,
  0x3d8929ecc0137966U, 0x3dccab92bfbff794U, 0x3fdae95b3dd38ac9U, 0xbf1e1f6b3faf39c5U,
  0xbfbca26ebede6e85U, 0x3f6157b83e18998fU, 0xc05b08b03e3e56f7U, 0x3d5330df3ec21296U,
  0xbfd91b50c00d25e7U, 0x40989e97bd429bb2U, 0x400cb397be070851U, 0xbf9ece16404c1ecfU,
  0x3d3b1c2a3e9fede6U, 0x3f9cfa4b3ed987bbU, 0xc0adfdccbf003eb2U, 0x3f723fa33f645de5U,
  0x403cd0543f2962c6U, 0xbff8c9973e0b46faU, 0xc067e64bbecd104fU, 0xbf89874abf86177bU,
  0xbf733881bcc27351U, 0xc084c174be63a074U, 0xbf848f2f3b8bd7c6U, 0xbec16c344054fa62U,
  0xbed433714115d9d0U, 0xbfa86090be8dee2bU, 0x400d654bc0b62448U, 0xbf7c6d2f3ff4e616U,
  0xc098617dbe4eb0e4U, 0xbe927c63406fc6a8U, 0x3fc4258dbf6f5425U, 0x3d89a32940639618U,
  0x401e26353d63ff1eU, 0x3f74f653bf492d10U, 0x3faba655c1165134U, 0xbfb7ad90c04cdd23U,
  0xc09a2cd9c0674682U, 0x40b9d0a0c1041286U, 0x3f213e4a3f01882cU, 0xbeb794dfc13c9e12U,
  0x3eabe42d3fd151fdU, 0x3ef50cb7bf722457U, 0x400e49db3f6eab3eU, 0x3fb1cd91beee07c6U,
  0xc001c4e33f65f92dU, 0xbf98dcc1bf562964U, 0x4092fa54bff13070U, 0x3f549216c080e9f7U,
  0x3e21425dbec05a1eU, 0x3ff68f7cbd9fb585U, 0x3fcf9acfbe97c326U, 0x3f10397b4002edb2U,
  0xbe8a6846be0ab2d4U, 0xbef4fa5c3fb92207U, 0xc0e1fae3c02f2acfU, 0x4016c567c115f9f8U,
  0x3fd763f4c058184fU, 0xc0899050c0086c8cU, 0xc004481a3e87ea48U, 0x3f66f066be1a310aU,
  0xbe4a9e5fbf7c9486U, 0x3f84d17abfbaad28U, 0x4006a91dc0f9d42dU, 0xbfb24200c08986bbU,
  0x3f20ea5c4021e6b3U, 0x3fbb330cc057c9f0U, 0xc1064d493e9a36d0U, 0x3fd3698dc06fe8d5U,
  0xbf44e33b4025a544U, 0x3d33bd40bed30454U, 0xbf8bce93c0133432U, 0xbf3f0c17be46331aU,
  0x3ff4f4b1bee18417U, 0xbdeb953bc01c6b43U, 0xbf85890fbdb9754eU, 0x3e9cd00ac10a756cU,
  0x3f4ec9c4bc39c562U, 0x3fa589cf3ffcc69bU, 0x40b4e97b3ea62188U, 0x3fa7282fbfac67cfU,
  0xbfe32ada3e13dcc4U, 0xbf060862bdf563e3U, 0x3f0aef0b4072699bU, 0x3f41cb51bfefbefbU,
  0xc09a04553dd90be5U, 0xbfd8218bbf963dbdU, 0xbf97a47b3eaa71c2U, 0xc09234c93f43df52U,
  0x3f1ae430c0424c20U, 0xbea79591c10f0825U, 0xbf1cab50bd5d1c94U, 0x3ed68d7e4093fbd9U,
  0x3fb64388bce05c06U, 0xbde63546befa1a1aU, 0x3e9437b53e629b09U, 0xbfb7463f40a1afffU,
  0xbfb60ea1bff876c7U, 0xbec60ccbbe9978b2U, 0x405b54a0c06b1250U, 0x3eabcec3c01ad194U,
  0x3ebea0eac007bc23U, 0xbfb608193f448881U, 0xbd446f02bf04e2cdU, 0x3cc66a85bfdb6925U,
  0xc089a2abbf4f394eU, 0xbf622f02c188b46cU, 0x3f311882bfbe79b1U, 0xc003990f3eeb346fU,
  0xbfa43379c047a67fU, 0xbff9b4603e8af4fdU, 0x408fcb54c0aa1defU, 0xbc9fe1f6be935ad4U,
  0x3e129a20bc0e43d0U, 0x3f018c0fbf22ea3dU, 0x3eb9a1743f8ffe7eU, 0xc09e5836410a2f61U,
  0x3ef525a23f300797U, 0x3e8f97783ea67e0eU, 0xbfa9b192bdd72c44U, 0xbff42edec0091162U,
  0xbe43456f3f8d78cdU, 0xbfbe6c79bee0ca08U, 0x3f7fdeddbfd5ae37U, 0xc08680d83f8274f9U,
  0x3f8c8a61bf315c6fU, 0xbfc89dd1bf2a5022U, 0x3fe71821bf0ea777U, 0xbe7fff263ff36c1bU,
  0xbfa7c84e3d6015d3U, 0xbfac5898bf9093dfU, 0xc0726ebd3edff7ccU, 0xc13b52973f8101faU,
  0x3f861e4a3fd060cdU, 0xbf685979bcbc1aeaU, 0x3f13ab333eacd05cU, 0x3f312d1dbe5667c1U,
  0x3fa65e243f029cb6U, 0xc0342626bf391461U, 0x3f4dd7083c40c6a3U, 0xbebcdec4be88afaaU,
  0x3f1e906bbf35fe8aU, 0x3f886a083f5ff1e3U, 0xc0d438153ef09314U, 0xbed8f1fabeae94d1U,
  0xbf26a6d0c093e42dU, 0x3efc852f3e7b89adU, 0xc0cb92c3c10f1c11U, 0xbd7c6f72bf51900eU,
  0x3f0f74d03faa22d3U, 0x40394df33e23967fU, 0xc023c85f3e435907U, 0x3e3503e2c060cd40U,
  0xbc6a0365c114e3c4U, 0x3fc130ef3fed06fbU, 0x40a09ece4036afe8U, 0x3e0588683f94157eU,
  0x3f3a3b513ec3469dU, 0x3ec55d5ebf029844U, 0x3eae6b4b3f9bf98cU, 0xbf03614f40423b90U,
  0x3e918282bca2c42cU, 0xbdd180143ea8f3f3U, 0xc0229c3d3fcfe8c4U, 0x3fa095ba3f4efc21U,
  0x3eb660e33e60855dU, 0x404a7f323fa51a20U, 0x3f3a7a38be69a747U, 0x3f3ce833c05b6975U,
  0x3ea6d322bf07b9a1U, 0x40445b23bf82bce8U, 0xbf28d893bf212905U, 0x3e72dc27c045164dU,
  0x3cf96452bddc1921U, 0xc0315c9cbf5041a2U, 0xc098a70b4002eaf2U, 0xbf13e38b408c3546U,
  0x3d842998bcbeedd8U, 0x3f5aa32ebe12c21eU, 0xbe9703f1bfbc6b55U, 0xbdf35124be788c22U,
  0xbe778fa2be827da5U, 0x3c9a924d3d5a4fbeU, 0xc06cdae53d8fdc57U, 0xbf92d07240b12dc4U,
  0x3faf9f7b40295cdcU, 0xc095072bbfba5eefU, 0xbf9693583f927679U, 0x3ea008b43ddec8f2U,
  0xbf05f3583fb6db9cU, 0xc07f72253fa3e31eU, 0xbeee3c85c0cfee3dU, 0xbfdfb890c006d413U,
  0x3ea821b23ef55ba0U, 0xbfe8d304c0972f7dU, 0x3f0e34b8c052d635U, 0x401a2259bff78f41U,
  0x3e9ee4433f8e4a60U, 0x404f198b3f3f0e07U, 0x3f1709453f9b7d8fU, 0xbfcf8cf5be8b24f4U,
  0x400fe992410dec81U, 0xbfe9eeb93f899590U, 0xbf7eb99a3c27ced4U, 0x3d09388240e11ca6U,
  0x3f97677b3e14aae8U, 0x3ffd4a5f3f0fe832U, 0x403857a7bf863056U, 0xbfc5d7e0bddec550U,
  0x3f5ce387c00622acU, 0x3f82c5eebeb8ca07U, 0x4029ce0a41413d3aU, 0xbf8400d33e8ad16fU,
  0xc0b5c6fa3f864330U, 0x40f456e2bffa5498U, 0xbfe035bc3f2ad1c5U, 0x3fdbc60dbf847bcfU,
  0x3ecac91d4173ce98U, 0xbcf8deef409efd57U, 0x402ec231c0c25698U, 0x3f42b12f404647b5U,
  0x3fa970c13ef3c309U, 0x3ed0c4d83fd183f2U, 0xbd56e9873e802a56U, 0xbd4a7ccac0308bf9U,
  0x3f90dcb63f391608U, 0xbf29fcc340332905U, 0xbe595adf4070f717U, 0x3fc36093bfcc5af6U,
  0x3fa71de63ef1cc05U, 0xbea435babff3c9ffU, 0xbe5ad09c3ffc874aU, 0x3faf06bc3faaaad1U,
  0x3e460b09bdb8f9d6U, 0x4111a00cbfede7a3U, 0x4083a6babf86b7e3U, 0x3f09512cbf90a328U,
  0x40b0fd373fa08de9U, 0x3e6ed2f33def9344U, 0x3e0d18b040e77c6eU, 0x3e08be43c0309334U,
  0x3eeed89f3e93a598U, 0x404a0e403ee8881eU, 0xbe2c72d0bec9f4bcU, 0x3fbd70574115ec4dU,
  0x3ebece26be2fd9f6U, 0x3f2342b7bf1d0d16U, 0x3ecb091b3f6316f6U, 0x3f9bd25dbfe198fcU,
  0x3e39ee0a40cd34b2U, 0x3ff787283d2571d4U, 0x40c4073d3eb11a06U, 0x3efc45183f23f67aU,
  0x3f01ba6b3f77d12cU, 0xbfc542d4403d67ddU, 0x40d6c11f404132b3U, 0x3f65ff4640630c3aU,
  0xbe664e813f43acb8U, 0xbe519700bfd3ff03U, 0x40007330bea0ce86U, 0x40c507e54033a70aU,
  0xbf1ef0923e7dc56bU, 0x400e0082bff18d37U, 0x3ec7795abf0c353eU, 0x3d9dbab4bfb55993U,
  0xbee39378c194c00eU, 0xbfb32fad3e994811U, 0x3f263a07bd969b4bU, 0xbedf4dd6c0a3dd5fU,
  0x3e9500fd3e533ddcU, 0x402ee5dd3f874225U, 0x40bc51843f32729fU, 0x3d3ccef13f8650aaU,
  0xbfd169c5bccb3736U, 0x3f9eea6abd2f314aU, 0xbec21e2640635327U, 0xbfc14dcf3f47d34bU,
  0xbe9e27c8bfbd1f33U, 0xc1584a3dbe90917aU, 0xbc9a1f8e3ea20e01U, 0x3ed0e643be2566e9U,
  0x3e9a43c4bed0a587U, 0xc012046dc13620f2U, 0x3df3fdff3c84349eU, 0xbf45ffd73f11bdffU,
  0x3ee341fbbd4eee53U, 0x3f2054adbfa679faU, 0xbf19a63cbee330f2U, 0xbdcd69533f41c44eU,
  0xbf2f7cfe3f15ee13U, 0xbf45f972bfa07b2fU, 0x3ebc67bdbe916087U, 0x3e14dd26c096815dU,
  0xbec59ad0c08423d3U, 0x3fef136ebfc0a3abU, 0x3f937f5f3f0d56dfU, 0xbf5deed5c0c559e4U,
  0xbe911fc7bf179294U, 0xbea422bfc0dce10dU, 0x3f493b8c3e8ecd60U, 0xbf5891a83f2d9c33U,
  0xc10aa4a9bdc78b66U, 0xbf6cead1be8429b1U, 0x40212608c156f652U, 0xbf8830d93eae01c4U,
  0xbc7b6f33be571538U, 0x4006ee633e418a4eU, 0x3d8c665d3f2e9950U, 0xc0f6d63abf6c1e9bU,
  0x3f1b270a3f705a6aU, 0xbf50c88b3f128aa1U, 0x3ceb70a63a9641c9U, 0xbe829263bf16256dU,
  0xbead1d7d4043a97cU, 0x3d5e3a233eb0bb6fU, 0xc145979cbe97da64U, 0xbf74dcc2becf3717U,
  0x3d1bd4cabf60a325U, 0xbfe1378ebc828c47U, 0xc01d8def3e2b72f8U, 0x3f38b651c18c4074U,
  0xbeb8e7963f94ed62U, 0x3e85bb2abec79b45U, 0x3e306b023e0f3435U, 0xc17b6fa5c0dc9c6aU,
  0x3d608ac4406f4f5aU, 0x3ed33a78be7f7e55U, 0x3f1ef2e4bf727489U, 0x3ec4bdd13dfbc072U,
  0x4066bf0fc08c39abU, 0xbd99e4dcbf8b39bbU, 0xc11a5622bc4d348eU, 0xbd28611ec0efd1e8U,
  0xbced87db3d05b950U, 0xbfccdf57c00072eaU, 0x4093b3babf833fe7U, 0x3eed0bbfbda2b1b1U,
  0xbefb39463e1bfb0aU, 0x3fc7fb333ef8dba1U, 0xc04ef6753f936631U, 0x3ed2a4b5be76c3a2U,
  0x40692ec73f1f8b2dU, 0xc0cdbfbbbf17dd5cU, 0xbf2591603f5e4311U, 0xbf61f06d3f74510bU,
  0x3ea46c31bf88378dU, 0xbd9b022a3f10ce7eU, 0xbe4e2635bedbd08bU, 0xc0a9d446400b1baaU,
  0x3feed90f3e4d9a79U, 0xc018d07cc00abcd6U, 0x3e02290a3f1ede82U, 0x3fb69bfa410366efU,
  0xc0310effc0838714U, 0x3f89fe92bea52a57U, 0x401abe1bbf2f2ccfU, 0x3ca935023f52f843U,
  0xc0a63cc0c08c4f41U, 0xbfbe81203fef1a13U, 0x3fc96ca1c01bca81U, 0x3ec13dfdc12b024cU,
  0xbf83c9ecbf1cbfe5U, 0xbe7a07c5bf8e53a1U, 0xc0a87fdc3d6ce3cdU, 0x3e13e2a13f3992e6U,
  0xc0730195bfba5a0cU, 0xc00083603e869fabU, 0xc0bc466ebf2b7bd6U, 0x3bc07f653fd42af8U,
  0xbe7310fcbff371c9U, 0xc0bebdacbedb7734U, 0xbf7b9830bd9a49e5U, 0xc0baf0c140a4c9dcU,
  0x3e5ee68a3ce52f63U, 0x3e3aa60c3d96dec2U, 0xc02979053f363581U, 0xbf114dcfc0cfd624U,
  0xbfd4dfedbf4d35fcU, 0xc09714f7bfba6d75U, 0xc0c442a23ec1ab69U, 0xbfae4bfd3f915c53U,
  0x3f40b9dd3f52d28eU, 0xc097eaa03f5db53dU, 0xbf094165c115e809U, 0xbf227328c12139c5U,
  0xbe9fe203c08448cfU, 0xbd9eb9b9c1718998U, 0x3e6dc96fbc0b1151U, 0xbfb028c7c10991dbU,
  0xbf0431203fff3ca0U, 0x3f11ff21c0165e19U, 0x3f4339dc3f017353U, 0x3e8f2284bf5c842bU,
  0xbf0a8765c19174c5U, 0xc078f1fb3e75a897U, 0x3ea69492be000ca1U, 0x3ec73dd5c0c776a1U,
  0xbe86f8c8bc3115b4U, 0x3f40bb4abeaa9976U, 0x4026cf173d9d0295U, 0x3f8178c3bfd98ba5U,
  0x3dfd2a9cbf167dadU, 0x3dbc6ad23d2b0ff0U, 0xbefbc830c1779811U, 0xc0882e643f85554eU,
  0xbe3aeda6bfc67df1U, 0xc18bf517bfc8517fU, 0xbfa1b92cbf3eef29U, 0xc0564ba1c0ebe848U,
  0xbe37aa86c0f26210U, 0xbf33c5c03c4fc5d3U, 0xbf8e70243fa7dd83U, 0xbe01ac4bbe824e51U,
  0x3f5bf2873e6af0b5U, 0x3e97a2243deaf62bU, 0xbfa7dd4a3f3811f4U, 0xbf8454dac069affeU,
  0x3fcd8006bec8a1d0U, 0xbfd32c41c07ff70cU, 0xbd63c4224042699dU, 0xbebbea61bf4d7d0bU,
  0xbe5988cfbf241471U, 0xbf22292a40031682U, 0xbe3b44b3bfe4a2d0U, 0xbeda2fa1c1145870U,
  0x3f395bd83f8642e3U, 0xc0c4120cc005d45bU, 0xc1316316bed9026bU, 0xc0dd99ad3e52e9f9U,
  0xc120de333f12d49cU, 0xbf415467be5defdfU, 0x3fc2a973bdd9f8bcU, 0xbdc346143f8414cfU,
  0x3ef333f83e0e227dU, 0x401f8d373d77f2f9U, 0xbfd1c91a3d696dffU, 0x3f19b956c00c4f07U,
  0xbe5a5dc13e1aac73U, 0xbede46d43e6f25ceU, 0x3f0836413ecf7d53U, 0xbe157b54be1bb352U,
  0xbf8e347ac08668bcU, 0xc022e0f7beaf2944U, 0xc1968f563f207ab4U, 0xbf331ec5bf2f9839U,
  0x3e71b89abc83956dU, 0xbff1f824c00db0faU, 0x3f416607be768407U, 0xbef22a83c1ea14cbU,
  0x3e454f58bdacd0a3U, 0xbf88eb56404a77cbU, 0x404a191cbe9aa696U, 0xbf8d885bc18881ddU,
  0xbd48a689bfb49610U, 0x3d19cda2bf8e8c0aU, 0x3f7f1b9d3fa1f48eU, 0x3f64d3623dfde8aeU,
  0x3f0bfeed3b07031eU, 0xc00d078e3ced7f5dU, 0xbf982ced3dba380eU, 0x3e9b62bdc0c8a65bU,
  0x3efff4903c677791U, 0xc0ca5298c0d07325U, 0xc0c466743eea4f74U, 0x3fbe6f93c04bef0cU,
  0xbf4ec51f3ef551d1U, 0xbf5f99c33eaeafdbU, 0xbeb794f2c0a2ead6U, 0xbeeda5d83f29031cU,
  0xbf86de753ead57afU, 0x4087a36ec18b0c21U, 0x3ea6f58ebf4ec31bU, 0xc087197ac0215083U,
  0xbd4469523f056035U, 0x3e9361da3ffc44c9U, 0xbe222dd24065aa40U, 0x3eea723cbbde05e4U,
  0xbe487920bde1d808U, 0xbb143dcfbecbf0cbU, 0xbf9d335f3f7db9baU, 0xc0471a44c10b43b3U,
  0xbf376e033e8242bdU, 0xc07b7664bf301cf1U, 0xc02889643fa89153U, 0x3f7a4ed53f72928fU,
  0xc0c92e063fd94609U, 0xc0f8468bc09568b8U, 0xbf67e15dc0517b10U, 0x3f993ee6c11957a3U,
  0x3f0a18023d568972U, 0x405e388b40d12f6bU, 0xc0a5cbe1bec5e6b7U, 0xbefd5a2fbf40b509U,
  0x3f0a32d93e7f131eU, 0x3eed06d43ebb2099U, 0xbf7206aa3fd0304dU, 0x3e03c77e3f689740U,
  0xbde333f4be884ed0U, 0x3f0283203d42ade1U, 0xbfab8d2fbef200aaU, 0x40195ae0c083a42eU,
  0xc00f021bbfb9d599U, 0xbeff45cec02bc3bdU, 0xbf6efdc13f899230U, 0x3ed4adc34037828bU,
  0xc18c865bc02a851bU, 0x3f84cc33bf3b507cU, 0x3ebfa0733f43fcf7U, 0xbe6ce0c3bf3f416dU,
  0xbfabd5813f23a234U, 0x3f2837323ffcaa23U, 0x40344aa8c0cc4b4aU, 0xbe6ab0c13e807002U,
  0xbf72bc4dbfe7cb6dU, 0x3f1257e8c01320bfU, 0x3f74f061be537b3aU, 0x4007c8f43d1adc4dU,
  0x3e2089c43ff0566dU, 0x3f0eab0fbea2390bU, 0x3ea07a5a3dfe0091U, 0x3f715d6e3e660a68U,
  0x3f436d4e3fcf57b4U, 0x4013f1d23f28f4eeU, 0x3f346eff3e0e76abU, 0x3e830091c0b2d857U,
  0xbee8d0533e6dccfaU, 0xbf84c1bebfe73afdU, 0xbde1e78540129442U, 0x3f7c71b33eea2323U,
  0x3fd6e1b13e9c6c6aU, 0x3fad9f9f3f863043U, 0x3f9b21edc1e5a230U, 0xbed1acb53fd21359U,
  0xc06957cabf729fe0U, 0xc005c37ac08266deU, 0x40019b33bfc101efU, 0xc191125dbf639084U,
  0xbcb63ee54054d74cU, 0xbf8244c6c0317464U, 0xc139c8563fa62592U, 0x3d47285e3f3ed3f9U,
  0x3ea91e61be9490c3U, 0xbecc3a1f3f2a412cU, 0xc0327e9fbf9f4728U, 0x3f11ac1b4173c6c7U,
  0x3f816cddbf74fcc1U, 0xbe03bab5bf8d7716U, 0x3fef3e8abe86c81eU, 0xbf2f74363f280d5fU,
  0xc089cd48bf169d6bU, 0xbf0ac641c0660b1bU, 0x3fb39b40c03b5847U, 0xbe48ceccc00e71efU,
  0x3f6c1d35c009a150U, 0xc1961f1f3e167379U, 0xc14ae790bf073d59U, 0xc03308944013b490U,
  0xbf910ca63f653971U, 0xbd9f04dc3f94fa40U, 0xc136891abffb0b24U, 0x3eb20d2d40435720U,
  0xbe99d817bf358e41U, 0x4014f4c73e7be436U, 0xbfab87033df61031U, 0x3e276673bfa50c28U,
  0x3ef81b753e37a16eU, 0xbf1c7a9e3f0cab8fU, 0xbfd062883f015051U, 0x3fd73cf6c059470fU,
  0xc0a338c1c198e461U, 0xc0475af7beab9a63U, 0x3f52ca9d3e9b2812U, 0x3f17fb11bf7d0949U,
  0xbf8209ccbddb19d9U, 0xbf6aa8b7bf53bf27U, 0x3fe8a6d5c0d4321eU, 0xbddf6c47bdf0762fU,
  0xbf16f66c3e67435cU, 0xbf14f01cc0d8221dU, 0x3f7326cdbcf9fa56U, 0xc077b880c001a85bU,
  0xbf24c9643f98e844U, 0xbeef869a3fca564cU, 0x3fa4157a3f51a37aU, 0xbe6be2dabf622a4fU,
  0x40054f533f637267U, 0xc0ab5d09bef133eaU, 0xbf39948cbdb55d83U, 0xbf527d153fa09983U,
  0x3fd346563e391603U, 0x3eefa082bfac42d6U, 0x406b8c0bbfaae97aU, 0x3ea282fd3ee144acU,
  0x3f00445ebf88e40bU, 0x3e141c693f6abc4bU, 0x3f581fc1c096078eU, 0xc07a303fc08375f4U,
  0xc07bc3d43fae9a86U, 0x40137ae8bff1dbd9U, 0xc0a86ced3f8d4450U, 0x40a118fcbed25c5aU,
  0x3f5241ebc17f4fd1U, 0x3f9f26cc3fd39144U, 0x3f1924c3c0b576b2U, 0x3fc1bbe7404e38e4U,
  0x3f2fd6a23f24a5d3U, 0x3ee3922ebfcd1281U, 0x40307e3d3f186dccU, 0xc00b2b88c1351e3eU,
  0x3e9c43d13e31c218U, 0xbfce4f173fb08310U, 0xc025f4893f14011cU, 0x3f76af973fc924e9U,
  0x40158579bf07e882U, 0x3feb0dd8c0a0589cU, 0x3e5be2f23fc47647U, 0x3f3acdfec09227a8U,
  0x3f0ecc383fd7c8cdU, 0x40d9d272c1270612U, 0x3f3a6f61bf801f3dU, 0x405a46e9c04b9823U,
  0x3ea3f1ca3e8ebd59U, 0xbf54cab0bf9145c1U, 0x40439f8340501d6dU, 0xbeb96928bfbeef27U,
  0x3ec0b2dfbe508140U, 0x3f54244a3ec3dfbfU, 0xbf701b68bcbeb71dU, 0xbfe381efbfbaa2aaU,
  0xbf6a32113e7fbd08U, 0x3e9cc8d0c01b408aU, 0x3f9196f63ecbe3e1U, 0x3dc12e17c0b3af7eU,
  0xbffa545a4012c00bU, 0x3f11ec333e84c528U, 0xbe80c2123eb73014U, 0x400855a93f4515b1U,
  0x3e488e6abf89f268U, 0x3feba7234000de75U, 0x40410f6f3eaede3eU, 0x40114ea640859b6cU,
  0xbe60199e3f7f5f34U, 0xbf23882ac1395a29U, 0x3f610da8bf379c79U, 0x4096edf6404fbffaU,
  0x3e16a439bf8a1ec8U, 0x3f1c2ac9bf92768cU, 0x3edf1adc3e295482U, 0x3d69a8a8bf5314e9U,
  0xc035a445c0d53bc6U, 0xc02389913f007959U, 0xc0d5d5093e46a4b5U, 0xbe91ed30c0fb93caU,
  0xbe94ad96bd667706U, 0xc12434d1c133b03fU, 0x409acf01bf806987U, 0xbebf087a3f07b5f2U,
  0xc033996a3eac3e01U, 0xbe0df3243f1aef33U, 0x3ffc5b5cc0dff33cU, 0xc00441b6bfb97f0eU,
  0xbf3dcd0cbe3fe45bU, 0xc083303dc0e0e579U, 0xbef7e31f3eeb3800U, 0xbfe63e593f733e91U,
  0xbebb3302bff97a8dU, 0x3fa1d781403724fcU, 0xbf23f537bf0e4216U, 0xc060c9f13e262be4U,
  0x3ef211ffbcd51f9cU, 0xbff98dd3bffd20f9U, 0x3ed482b93ea2a7a4U, 0x3f9e3075c079cdebU,
  0xbffa9199bf5cd0deU, 0x3f9d2c3b3e0e3e95U, 0xbf4fe40c3fd10fd8U, 0x3e26b7423eec14b5U,
  0xbf8aea7ac0099abfU, 0xbec4e4f4bff7520dU, 0x3f8afa52c1194713U, 0xbf2c7095c0733267U,
  0x3f48260d3d586464U, 0xbfefd4dd3e72b237U, 0xbff187b63f14d32cU, 0x3f4345be3f8b6809U,
  0xc03b57ea3f96ed6cU, 0x3f8b7eef3f7346a3U, 0xc15c6d1cbecc6bc1U, 0xbf942e8040185620U,
  0xbeb33c5dbfc988ffU, 0x405779343e096373U, 0xbf27cfe23f5c686bU, 0xbfc83cac403699c4U,
  0x3e4561223e9b36a6U, 0xbef0a07c3e5543f2U, 0x400aca3d3e952eb7U, 0x3d0c3ea5be11bd4aU,
  0xc09ad1843f0c85ccU, 0x40261eeebf8d169dU, 0xc0cbb082bd58b493U, 0xbe226da2be15afc2U,
  0xbe3e3eac3e93adceU, 0xbe02a493bf5d5356U, 0x3fd56358c09497daU, 0xbe5149dcc035846fU,
  0x3ee9c47ac0c13e99U, 0xc00465a5c1a15a75U, 0x3f11f13dbe1b5dd1U, 0xbe469dcfc05f895dU,
  0xbee1e3a0c12186ecU, 0x3fec8a4b3f08f4d8U, 0x3ee951533ee88ae9U, 0x3f02ede8bec42b45U,
  0xc020e328c0e79daeU, 0xc0969eecbd82167bU, 0x3f32a1b93cf19b3bU, 0xbe5bdb05c051671cU,
  0x3d829bc03dd7fdddU, 0xbfc6f1573f0b588eU, 0x3ef13f663eb6987cU, 0x3f6c319dc054cf93U,
  0x3e4fc2c1bda88f12U, 0xbee1cee63ec5508bU, 0x3f325360c00bae54U, 0xbf77135b3de779e2U,
  0xbf44b0523e90c0f5U, 0xc1124de5bfa1759fU, 0xbfb55616bfa7a8caU, 0xc08bd647c070e762U,
  0x3ea9b03bbf93e2eaU, 0xbdb69db8c00b77d0U, 0xc08c7aec3f7d02a7U, 0x3f637c2dc02e2006U,
  0xbd8d8b0f3e07985aU, 0x3f2504cd3fb73970U, 0xbfc2ce9bbf867a89U, 0xc0855c13c00c0da6U,
  0x3f6efb283f683ef6U, 0xc0a6cdd33f4dfbe1U, 0xc1805c04bf035e4fU, 0x3e66baa7bf294a66U,
  0x401d6b9d3f0233b0U, 0xc01062e1bfd10b60U, 0x3f0bdec9c017ee4aU, 0xbea0ed6d412629b3U,
  0x3d1ca5cf3f52dbc0U, 0xc09f58703ff1c315U, 0xc041f55e3d04a35eU, 0xbef11111bfa937d6U,
  0xbf3f63d03ec4bb78U, 0x3f2c6d9bbf11278eU, 0x4066165fbec35748U, 0xbec9854abea8a242U,
  0x3ea79f103eb1a0a3U, 0x405cfbfe3f1aa2a1U, 0xbfb0389bc01f6f19U, 0x3eb4946bc1093a15U,
  0xc00d6aebbff41d7dU, 0x3ed82ca2bf72005eU, 0xc0e94cac3d100dfbU, 0x3f51114abeff311bU,
  0xc03b00c9c005c8e1U, 0xc0f30f3bbe0c35d4U, 0xc14a77b23e649f70U, 0x3f513e3dbb036d8aU,
  0xbc83e0e0bf56cb88U, 0xbfc2ff313eb9f626U, 0x402662c2407984c2U, 0xbfa5f188c153a777U,
  0x3e1d6a2c3f85ea34U, 0x3ebe5fa6bf2ac87eU, 0xbe3e201dbe807b9eU, 0xbfc911f5c151b155U,
  0xbe8890eb40abd9adU, 0xbf6d71a6bf3d4a70U, 0x3f1ca5513f030028U, 0x3f5389e5bfd9e0f3U,
  0x411d65bfc0d50fd3U, 0x3fbee4383eb38cd1U, 0x3fe968e63e67c5f3U, 0xbfac02cbbfbe0f33U,
  0x3eb8e587bf183be7U, 0x401fd4e43fc22e85U, 0x40ca6fdbc07e5d2eU, 0x3f8dc8a1bfa2e4d0U,
  0x3e709144be882925U, 0x3f6f9d003f99a604U, 0xc0465ddfbe1fe527U, 0xc01ec577bfbfad32U,
  0xc0b0882e4070ca33U, 0xc0f93ae6402f293bU, 0x3c1d29263ef44819U, 0x3f4ab1ffbfb19e59U,
  0xbe322f6f405897a4U, 0x3f3ee9c84036daeaU, 0xbf3c17bcbff39190U, 0x3f7719bb3edde91bU,
  0xbce08d683c66e769U, 0x400c58973f2c646aU, 0xbf8c242e3fadfceeU, 0x3f9c133441ee4866U,
  0x3f6291183ed55befU, 0x3f97d2743dab36aeU, 0x40210ddfc00d4b39U, 0x3e02fd703eecbf1dU,
  0xc04af8f4be889c0cU, 0x4024395ebfc4b525U, 0x3f6731d3bf506014U, 0x3fd6fac8c1134a50U,
  0xbdecae713fa58f55U, 0x4058f3e84038204cU, 0x40cb71403edc1d09U, 0x3f80183f3f58f645U,
  0xc09b08993f45e576U, 0x3f342cfd3e82be3bU, 0x4038f68d3eefdfa0U, 0xbd7c8c993faad561U,
  0x3dea09373fada9ecU, 0xbf9df5e73efd0a01U, 0xc02b1cdfbc1accccU, 0x3f890a863ce46897U,
  0x3e540a883eac7efaU, 0x3f94460c4017f2a8U, 0xc0b840733f4dd90dU, 0xbd831b65c111d0e7U,
  0x3f934c6c40281644U, 0xbfef2c66be16967eU, 0xc15a6fe33e6a07dcU, 0x3eabf7b4402f6fb6U,
  0x3f941c9c3f43b8e1U, 0x3ec6e8514044cbacU, 0x3f97b9f0c0469d1fU, 0xbf68cfc4c0cf6635U,
  0x3ebc13b13efbda77U, 0xbfbd4c04c0b3c0d0U, 0xc04ecbb4bef57a35U, 0x3f9c3a5fc14faa3eU,
  0x3d9b7396c0077ecaU, 0xbf0c3db13d8adce4U, 0xbed0a7b0bf3196cfU, 0x3e6e3eac3f33f9f9U,
  0x4041a556c02e4e3bU, 0x3f13a52d3f60445fU, 0xbe643a143d0ae6e6U, 0x3f06611cc19b70b8U,
  0xbeefb4913e0cfe85U, 0xc12ec30dc1358171U, 0x3fdfc5213f42cc1aU, 0xbfd65a4bbe872beaU,
  0xbef5cbe33f0d3dc0U, 0x3f965e30be2a0275U, 0xbe2045033f909587U, 0x3fdc8b9a3fc26e16U,
  0xbf8cadfd3e41637fU, 0xc079c268c0dc191aU, 0x3f9216e5bfcbbcdfU, 0xc02f48a93fcd34e9U,
  0xbf6aab2c3f1bafa4U, 0xbe40ce59bf7fad54U, 0x3fa26ce93f3d09c6U, 0xbf056d98c036f7d1U,
  0x3ee8f59ebf459c48U, 0xbcf1a9c5bfc47d20U, 0x3e92e4b93f5b63c1U, 0xbf9dc53140b814d7U,
  0xbfe3d94e3f50869fU, 0xc05a224ebe42185bU, 0x3e570faa3ed02d5dU, 0xbcc522893da58c80U,
  0xbec0016cbf1c8f16U, 0xbfbd073abfe1c085U, 0xbde55344c17fe227U, 0x3f4331283f766f01U,
  0x3fb0b1313f948456U, 0xc005754140026affU, 0xbfb9f964be890a48U, 0xbc8672e9bf9695b7U,
  0xc01e0c49be52a109U, 0xbebcb44b3ccaf94bU, 0xc15132e4c0144891U, 0x3db224623fc52305U,
  0xbf0881aebd0ce9f6U, 0x3f2cec063f35ad4cU, 0xbf2f0813bf7bc6c7U, 0xbe859516c03eee17U,
  0xbf20c5ffbf0ffad5U, 0xbf239056bf4d3b62U, 0xbebbb6623f3002b6U, 0x3f6dd6a03e8cb74aU,
  0xc11add21bfd1979eU, 0xbfaccd75bee914b9U, 0x4022f491bdf2f349U, 0x3d2517dc3ef54fffU,
  0xbf9dc9b3becae123U, 0xbf20c588bef37caaU, 0xbf46af50c07bef6bU, 0xbf233e94c053d7c1U,
  0xbdb13f33bfbea675U, 0x3f8a1c3cc1e3f4b3U, 0x3ee4d9503eb3fb2dU, 0xbffcfd8b40063dddU,
  0xbc187d6bc0025ec8U, 0xc0a117bd3f1530a1U, 0xbe574061bc32e319U, 0xbf38b531c07159c1U,
  0xc17d5122c083ab82U, 0xc1086c9abea36ed4U, 0x3ffddd72bd9c7684U, 0xbf70c7f8404f84d6U,
  0x3f240fa6bf8c8b43U, 0x3fbaba833f44cee0U, 0x40986329bf9a2597U, 0xbf8ba1ab3eb0b8fcU,
  0x40486e2abeb3c905U, 0x3f3efc10c048d73bU, 0x3fc6704a412aef1bU, 0xc10769333f124b88U,
  0x3fa29708c0d39c72U, 0xc038675b3ec91882U, 0x3f62f3c53ecda0a3U, 0x40401290bf7d0fd4U,
  0x3e24656a3eb7e74cU, 0xbf8460793e67e561U, 0x3d84f67dbef53968U, 0x3f5a3135403e16cdU,
  0x3eba708fbc19d6c7U, 0x3e33dff6402a1502U, 0xbe0fa881c0970f66U, 0x3f645cfdc19eac29U,
  0x401b0006be6cdaf2U, 0x3f946bf6be9fc517U, 0x3f954d57c0278a11U, 0x3ed83cd83e8592f4U,
  0x3e337f493d6aa238U, 0x4006621cc0509b48U, 0xbf4c3a383f3ea711U, 0xc07caa124181fcc1U,
  0xbf4c25963d98ebecU, 0x402b2b193fc2ace5U, 0x4066d2c9be86f803U, 0x3f2ebd9e3e2fe814U,
  0x3f94e77fbfaf8310U, 0x3f2dc439be064a3aU, 0x4057314a3e936c74U, 0x3f0e9dd13f6c10e2U,
  0x3eb196e5bd9aa8b2U, 0x3fddd8d5bf970b50U, 0x3e01ceb53f99322eU, 0xbfeb505c40ed4300U,
  0x3e84ce743eb3b550U, 0xc01ea088bea5e9aeU, 0xbebb74203efc32ebU, 0xbff9ed8fc008b44eU,
  0x3f9a631640b29644U, 0xbffefb063ed93a61U, 0xc0857b58c01ae077U, 0xbfad296ac0548effU,
  0x3f3dea403eb740c3U, 0x3fc3e167bdae637fU, 0x3ef26c123f202cd9U, 0x3fc4868b3ecb96fdU,
  0xbf3f454d3f3c2fa7U, 0x3ee6891e403f8656U, 0xbf6f0b99bdec713dU, 0x3fb3eaa1c057cad0U,
  0xbf96e2babee862b1U, 0xbf5a4ae13f53702cU, 0x3d40a1b7bcfbde3bU, 0x3f14521dbe0769f2U,
  0xc0360709c0dec16dU, 0xbee3d7093e04dbfcU, 0x40564d69be9be5adU, 0xbe82f62d400f62c9U,
  0x3dd693103f0ae802U, 0xbe8d22e43eddcceeU, 0xc0d1c09140093b7cU, 0x3ff1c30a3fb3bd38U,
  0x3ee7648abd00a649U, 0xbf3206473e854ecdU, 0xc0df2b1cc08b9f27U, 0xc027e9793f408b33U,
  0xc127ffaac02a7a7fU, 0xc1381b7d3fcfca4eU, 0xbf8ccd723f05e34aU, 0x4023f9cebfcc7cf8U,
  0x3f56965f40416c9aU, 0xbf5b3cfc3e2bc07bU, 0x3f8580e23e85d4e5U, 0xbeb321163e0d28bcU,
  0x3ee9b3cd3f7fd3bdU, 0xbf797b86bf642617U, 0xbe98a171bee3ac39U, 0x4009b084bfa062fbU,
  0x3f36efba3e8098ffU, 0x3fdf0f553f6323b3U, 0xbf9970564008ed16U, 0x4002aabfbe239bf2U,
  0x3ecb6995bfa544b0U, 0x409540d2bf2cd0acU, 0x3ef0611e3ff06faeU, 0x3ebf458ac0f092aaU,
  0xbfd18fc1bf9b81caU, 0x3e414648c17bb97cU, 0xbf807efc3eee39ebU, 0xc0016569bf04f761U,
  0xbfdb6ecebee95b75U, 0xc03c6d94be8af25bU, 0xbfe170743e68a5a7U, 0xbf1bd449c069612cU,
  0x3f08ccb1bf0e85a7U, 0x3c2064c03e2ba467U, 0xbf80587dc0869d4dU, 0x3f93ca5a3fe20a50U,
  0xbcc182ef3f5b8ecfU, 0xbf29d230be3797c3U, 0xbf83a61e3ef40790U, 0xbfa44ed03fedb168U,
  0x406ef55b3f837f4fU, 0xc0c2b8cf3f2d570cU, 0xc182b25bbc93a947U, 0xbeddd3fcbf8801eaU,
  0xbf776ba1bf0d6d28U, 0xbf0125413fca7df3U, 0x406b51a940425457U, 0xbfd204dec135275aU,
  0x3e3330d23f04148fU, 0xc087de5d409e2c35U, 0x3fd14f58bdfc9bf3U, 0x40129c23c1533084U,
  0xbef6102040b680b0U, 0xbf0f94ba3fa49c03U, 0xbf0687bdbf3f6d46U, 0x3d03fef83f3936a8U,
  0x40a25bbbc12f9a66U, 0xbfe4c483bd257d8fU, 0x406c488f3d4fb27eU, 0xbf434d66407e0526U,
  0x3e1985ee3dc1ebbdU, 0x40027ef83f67ec03U, 0xbfaafb633f65666bU, 0xbe8e481c40316925U,
  0xbfb467bd3c7cb669U, 0x3fbd87013f6b31b1U, 0x40a13f96c07651f5U, 0x3f83c619c0434b19U,
  0x3fb68e5dbf007362U, 0xc16401a73f84f05cU, 0x3eadb5eabede0fc0U, 0x411c68c53cbf5251U,
  0xbc5a9dc340898f82U, 0x3f395c7ebe2783f3U, 0x40760c4abf21f4e7U, 0xbfb4c213bfdc8ea4U,
  0xbf8b9e5a3ecc5e8fU, 0x3dd108cdbfaaad37U, 0x3ea7efc33f75210bU, 0xbe541ac440dde2f8U,
  0x3ecd525f3f0bbbc1U, 0xbdb796ac3f9a6268U, 0x404612d2c00015c9U, 0x3f7134f93f7b1e99U,
  0xbecdd10fc0a9d63fU, 0x403720a9c077ad21U, 0x3f92fb7b4041616eU, 0xbe7acb3541d592f4U,
  0x3ecdbb363dbbcaeeU, 0x41069f303fdf8957U, 0x408d956ebe5b11bcU, 0x4027ce483f4fd3ccU,
  0xc031f571bd77e734U, 0xc023b7253e8a6bd6U, 0xc15248c53fa4a749U, 0xbf340baf40258b8cU,
  0x3eacc1ebbf37551aU, 0xbf514a673ed53033U, 0x3f5fa3a3bef18b98U, 0xbffb19db40097daaU,
  0x3d80e2973f32fcb9U, 0x3d8e972bbe7ab8cdU, 0xc00e7876bf4f4174U, 0xbf6feef4c01e2567U,
  0x3fc9b3524068286fU, 0xc10511763e222ebeU, 0xc1ac4ad63ed6646eU, 0xbef72dfd3eac062cU,
  0xbe55a910bf309c94U, 0xbf946fbb4091f7e5U, 0xbf1ae2593f38d1f6U, 0x3fac2328c12f05aeU,
  0xbe7131f1402f7cf6U, 0x3ef172d44135a3bbU, 0x3da0caa7bf0ca6efU, 0x4032002ec14943c4U,
  0xbd294006bff69aefU, 0xbfa2fea3bde350cdU, 0x3fc70a153eb0cdd4U, 0x3ef9e1c7bf696968U,
  0x40624e88408ee21aU, 0xbfedf35ebf17b587U, 0x3fa6398c3da99d9aU, 0xbf59c76fbf81206dU,
  0xbe59dc45bfbf7e86U, 0xbec5f2e4be9b4aa9U, 0xc101dfae3fee24b7U, 0xc02c89d0bf07caa3U,
  0xc0196395bffc963dU, 0xbfdb1be53c83aa1cU, 0x3fe2de34bf33bcc3U, 0xc02cb7f5c04053caU,
  0x40b0edc83fd266d8U, 0xbf1d2123c0277f9fU, 0xc00f24a8bf5b5348U, 0x40a4ede6bf83e4b4U,
  0xbe66fd35bf63b064U, 0x3fc941ed3f236a31U, 0x4002ed904005ec1dU, 0xbf3ec8ecc0589668U,
  0xbfcd2c2abf01f522U, 0x3d0e8cc5c0160ec3U, 0x3f1ab9bb3f464eb5U, 0xc0021eb24035d977U,
  0xc04ce2103fc32135U, 0xbfb14631bebbddbbU, 0xc0bbff363deb334eU, 0xbef0dce23d093daaU,
  0x401f9268bf1f02e4U, 0x40979a5a3e7b5987U, 0x3fb1e2f9bfd1f38bU, 0x3f358902419fea3bU,
  0xbdcc14953fd2948fU, 0x403885453fd9f4aeU, 0x401cb6cfbe148bc5U, 0x402f341cc0570ea2U,
  0xbf29a002be0199f4U, 0xbe39850a3f126563U, 0x4119c321400ace7aU, 0xbfc9aac5405c19b4U,
  0xbccaa255be5560daU, 0x4029ecb0bf08f5ecU, 0xbe911250bffaed72U, 0x4002b9b741096eb0U,
  0xbc48815bbf5b1ef2U, 0x3f0362d8bfb70067U, 0xc0a4d3153cae6f01U, 0x3fe54ee74099fc21U,
  0xbf880fe03fa4085cU, 0xc01211cc3e9b926cU, 0x3fe2ca453f0dbc5bU, 0x3eaf872e3d98db19U,
  0xbe73c8543f13747fU, 0xbf2e143cbe0cc11bU, 0x40331be6400838fdU, 0xbf0d152a3f30a0acU,
  0x3f0b5f553f414e92U, 0xbf9831cc411eaa40U, 0x3eaa69d6bfb09022U, 0x3f9a13adc036df53U,
  0x3e77cf543ec48802U, 0x3de737f5bf1e28f9U, 0xbebbb88c3f2ffc2aU, 0x3f3b561e3e30a1f6U,
  0x3e8f0ddd405d4ccaU, 0x4021381d3f4bfa9cU, 0xc043dcc9bcccc3dfU, 0xbdd7a1e7c023b511U,
  0xbf3708253db3a9cbU, 0xbfb2ab91bfd99009U, 0xbfee32edbfb94bb7U, 0x3faa62b33ea75638U,
  0x3f9cfe88bf1939e5U, 0xbfbce42ebf1859efU, 0xbd99ad4ac2141272U, 0xbb07e3743f1c4ad3U,
  0xc019ecfebfb60e8fU, 0x404ba41ebf885cf9U, 0x3c609e56beab8417U, 0xc191a012bee9ff21U,
  0x3ee25832bf5b9850U, 0xbf5359adbf1a9e61U, 0xc132a24cbf1818ebU, 0xbe98a652c083b0f0U,
  0xc006e4bdbd9d82aeU, 0xbf00cac63f78e2abU, 0xc0ae5f133f496c8eU, 0x3f0aedc040738956U,
  0xbec305fbbfd80c84U, 0x3f23df743e021c60U, 0x3fc2dafebe71c49eU, 0xbeb1f081bf3797fcU,
  0xbf96d4b6bea69802U, 0xc0d5bd473f920757U, 0xc0050090bf349bc8U, 0x3f45a48ebffb130cU,
  0x3f2466e3c01b0a34U, 0xc1c11323409176b7U, 0xc1a12ca53e286704U, 0xc092d45f3e422cb6U,
  0x4027cd963f104d6fU, 0x3eab8e0d3f834fa0U, 0x3ffdb938bf3aef5dU, 0x3d2829383dd4d928U,
  0xbd8e7670be06e324U, 0xc05978433e0b823aU, 0xbf06bfce3f0f0a1eU, 0x3fea84c9401c86c1U,
  0xbf1870c33e9279a5U, 0xbf058dc43f2e86cdU, 0xba74156fbf964da4U, 0xbfae91ddc1280bdaU,
  0xbf1d296bc124743aU, 0x400dd4e23f544015U, 0xbf990e783f4d6a5dU, 0x3fa0e8de3f4250b6U,
  0x3da828f73f41a7cbU, 0xbf4aca3abf274535U, 0xc0fa8518bf852a92U, 0xbea643b53e5f283fU,
  0x3d4ee6febf9eb19cU, 0xbe1670c3bf33bb53U, 0x403666b7bf0cec03U, 0xbe31fc7d3fed2cc5U,
  0x3db71bcd3fb55878U, 0xc0d6f41b3e59b535U, 0xbe2ce1ecbf6db8a8U, 0xc00255b9c0825684U,
  0xbec00de540c050f0U, 0xc10edc85bf7b93caU, 0x3fb522d83e492270U, 0xbf2a7a743f97083bU,
  0x3f5e1ea8bfcf52e5U, 0x4068fa88408992a6U, 0xbdaeac15c00a3f98U, 0xc02a1f6ebe16e9d0U,
  0xbf535f12bf33842aU, 0x3f19abd73e12add4U, 0xbece1f50c1894fd1U, 0xc10ab2e7bfee4c3aU,
  0xc0897a07bf7a39cdU, 0x4009747f3ff0ec1dU, 0xc095df4f3ebef373U, 0xbfea59fdc0a22991U,
  0x3cc407583fcea84fU, 0x3f2ebd1c3f817e7fU, 0x3fee5768bf9f0227U, 0xbdcbc8a84079f37dU,
  0x3fc8fa1f3e1a4337U, 0x3ebaaffbbff409a7U, 0xbf8212943eb24d01U, 0xc00b2db9bef657b2U,
  0x3c969d2c3f77b018U, 0xc07908613f447aa7U, 0xbf2ae0b33fb51ee1U, 0x3e26278bbd158f25U,
  0xbf843c6cbf85da91U, 0xc12a3926c02a2fe6U, 0xbf15991340480d54U, 0x3e610357c1848002U,
  0xbf02ddf5be926fe7U, 0xc01fbd55bf8d0f20U, 0xc0a62866c00aec76U, 0xbf2d6af23faa662fU,
  0x3fd78148be7d0375U, 0x3f25f7493f2c204aU, 0x40e0ccc63f99a07eU, 0x3eb9c15ac02a3bbfU,
  0x3da6258f3eddc893U, 0xbf871c473d308ed7U, 0xbfccc32a3f3d8241U, 0xbe925aebc0a2011cU,
  0xbfcd410dbf5c4ba1U, 0x3e2964bbbfddbd44U, 0x3f87a9cf3f1d954bU, 0xc05578b1c0c5ae55U,
  0x3d0b7d2dbbe427d6U, 0x405dee23be101122U, 0x403fd143beb669a6U, 0xbf15e2373cc462abU,
  0x3fa679fb3ea24a28U, 0xbf85f68e3f1c1f03U, 0x3fa6918b3f5c3695U, 0x3f3da68b40d572e4U,
  0xbf8f9f9b3f4afc3eU, 0x3f040c04402a6080U, 0x40172432bcc7f650U, 0x3fc93719403d34bbU,
  0x3e1cc7093fb867a4U, 0x3f8fc09fbe869814U, 0xbfaddcd9be41de52U, 0xbf3e95633dc24018U,
  0xbdce670140606638U, 0xbf992bd2be3a1d22U, 0xc0ad1b3cbe0712e8U, 0xbed06189bfbe08fdU,
  0xbef673873da3c635U, 0xbf205268be6f42cbU, 0xbfde10533ec27bfdU, 0xbd48e487bf02356aU,
  0xbd874cbd3e12269fU, 0x3e1d375c3e2d52c3U, 0xbfb8e9d2c210da3eU, 0x3ef23e6bbf7959d4U,
  0x3f96d53f3f141d61U, 0x3ff587ff3ee49e81U, 0xbf5f9d963e8ffe6dU, 0xc1ad58b03ff373c9U,
  0xbe590e06be61eda4U, 0xbcd9e92ebd959dd7U, 0xc1c7e03e3fae1eacU, 0xc053767cc03495d7U,
  0xbe0caa73bde38a2fU, 0xbf04b0153f41ef89U, 0x3fcdcd79bdc5d32cU, 0x3f5f2ee4405e2374U,
  0x3f090e9bbef3976cU, 0x3fa97248be89f9d6U, 0x3f9f6c15bf7c008eU, 0xbfbd42efbfb3934eU,
  0x3f9a95e7bfa3e2a3U, 0xbf1aa790406cda17U, 0x3dc8870ebf59c5f6U, 0xbd253084c0cddd90U,
  0x3ec1f1813e8acc99U, 0xc1a51bd93eb98ee4U, 0xc16ce5903f3bceaaU, 0x3e4da188bf349f5aU,
  0x3efaa4c93ea2f845U, 0xbfcb18833da35b7cU, 0x40109a28bf817181U, 0x3edfae14bfeb3f85U,
  0xbe628b363c04941aU, 0xc10bfbb1bebc0144U, 0x3fbc22dfbf9a9961U, 0x3fafcd25c0a6d9a0U,
  0xbe9b2d2c3e27de9fU, 0x3e50f72bbdbfd532U, 0xbfbbe42f3d9aaab3U, 0x3f9b5b423f949bf5U,
  0x3f639d19c18972c6U, 0xbf94df4cbe7ba531U, 0x4047ab5a3eb856cfU, 0x3fb89f453d78d466U,
  0xbdf4c5bcbf11580dU, 0x3fa311c8c01cd548U, 0xbe9e305dbf655334U, 0xbf7270ed400dbf0eU,
  0x3da5a166c066aed7U, 0x3d9d3f50c034b0b8U, 0xbe7812503d98afc4U, 0xbfa78eedbf115fe1U,
  0x3e2f45533f9861ebU, 0xbfb4d47abf0f2c88U, 0x3f015e2cc0d6ec94U, 0xbde41603bd3e2c3dU,
  0xbe4af1aabfac46faU, 0x3f81a3aebf4137c3U, 0xbc3e8b253d6bcd3eU, 0x3ee6d1f7c0b8efffU,
  0x3e0090393e23d8d5U, 0x3dfa51abbe8b782fU, 0xbfaed6693f1a543fU, 0xc03d743d3f27addeU,
  0xc0d367b5bf05e457U, 0xbf287f793e3779fdU, 0x3d8792273f49a068U, 0xbe085952be98503aU,
  0xc0622b593f4cbe2cU, 0xc03029bd3ef6b502U, 0x3f15fbedbd6da0dbU, 0x401e1f063d086539U,
  0x3ee1f7b9c0c335efU, 0x3f13123cbf0b8e6dU, 0x3f8c0018bf6dd7a6U, 0xbd6c28d83e4f3c92U,
  0x3f1865ee3e04be75U, 0x3f29ab58c0cc73f9U, 0x3fcb2d81beda8ea0U, 0xbf05e0b04011f657U,
  0xc0ee615cbf0ae91eU, 0xbfdde515bf04ada3U, 0x401453683e4c6d2aU, 0x3e0a6e893f1d37e4U,
  0xbfc952bdbe06d33bU, 0x3f8fdcc83f40e486U, 0xbfc0aff2c025ae83U, 0x3f8ade78c0cbad3aU,
  0xc08131da401454cfU, 0x3e38adf4bff2525dU, 0x3ef4ace7bf023eb0U, 0x3da8dd6ebe895f58U,
  0xbfba89e0c12ef451U, 0xbde8679bbfb7a95cU, 0xc126e397c07d4054U, 0xc02185b2bfbc7b78U,
  0xbcade15b3f0f5747U, 0xbf7b2192bda6a9a9U, 0x3e15c7a13ec2b52aU, 0xc023b0a23fbd7802U,
  0xbe0f58cb3deb666dU, 0xbe349b77be5df33aU, 0xbfdb9efdbf651348U, 0xbf0a23cfc06f58e0U,
  0x3ffb2c163fc4dc72U, 0xbf4b999ebedd54a6U, 0x3f8751c4bf8cfe3dU, 0xc0f5db823f5c4ea8U,
  0x3dd9e2e4be5bf936U, 0xbe9507dc3dacc0efU, 0x3f8f5ceac106822fU, 0x3f2b4d56c001d45bU,
  0x3e6aa546bedbc770U, 0x3fd62f47c145e378U, 0xbffab2133e22031bU, 0xc043f73fbfc5a4a9U,
  0x3df511ef402bc974U, 0x3f1ff060bf943a7cU, 0xbf920399bfac7836U, 0x3fe25d62bf3b69cbU,
  0x3d81e3ddbf06bdbeU, 0xbdd2e6aabf4f2bf6U, 0xc0e88b3cbc5779a7U, 0xbf1c7253c110f19dU,
  0x3eb440093e8ef902U, 0xbedcfdd2beaeb8d9U, 0x414329e93e5e05e1U, 0x3dac78ce3fc9d0c8U,
  0x3faa108dbd87f0e4U, 0x40541fdebe92eb65U, 0xbeaccf33c09c6cb3U, 0xbfde3f8cbe557bafU,
  0xc0e3fab03f0f4accU, 0xc08e62f3bfbaae2fU, 0x3ee60fc13e28d840U, 0xc00e4611bf4140e9U,
  0x3cf2c8a0c0988213U, 0x3f80ebe1c04d94c8U, 0xc0f01616bf5e76feU, 0xc0aaeed74089f37fU,
  0x3fcd66e03d46c127U, 0xbf8c709b3f9af4b8U, 0x3f68a433bc8b2b71U, 0xbeff1fec40b33560U,
  0x3ec43ea3bf44e9e9U, 0x3f6add57bf9f1b6fU, 0xbdda60c4bf3fef29U, 0xbf5dce03bf485fc0U,
  0xbf2b3af0c0a941c3U, 0xbea99dd240d597efU, 0xbf073176c0d767dfU, 0x3ec6ef98c0fe263aU,
  0x3eb7f80e3fc4c137U, 0xc075524cc07f8ca6U, 0xc0ea1ec33f690c70U, 0x3eb983093e96348aU,
  0xbfdaf809bf91ca15U, 0xbec5393c3cfe3e4bU, 0xc1518af3c0592762U, 0xbf08bf583e58aa9dU,
  0xbe2bf150bf17a0f8U, 0xc0c90e06bef6a0c2U, 0x401a92083f12a232U, 0xc0f52f0441131b18U,
  0x3f6a3f69bf3dfe3eU, 0x3ec8f4553f1be0d4U, 0xc000ac903fac44b0U, 0x40228014c05c629cU,
  0xbfaccb86c098a4acU, 0xbef31562be6afe73U, 0x3f2e4060bd2f8258U, 0xbeeedc123f25c6d5U,
  0x3f495d5a3f190d06U, 0x3fa42a10c034d21eU, 0x3f28ca6abf771737U, 0xbf6d8bf1bf9f8131U,
  0x3a0106bbc0637ff3U, 0x3e5b97fbc16f89b8U, 0xbf7410333d9348bcU, 0xc08fdd223fe5e273U,
  0xbf8ff2473eb4a8c9U, 0xbf7876ea3e153cdaU, 0x3f930e7cc0109818U, 0xbf913a953e94aab1U,
  0x3f80470ebee79d41U, 0x409e4b383fd0f2d6U, 0x3f053f78be96f8b2U, 0x3f0e168dc0f1b8fdU,
  0x3f48b3cd3e996b31U, 0xc00c17a5bfbb7962U, 0xc1508fcc3f360e84U, 0x3f1220a63f3f5f2aU,
  0xc0453d2b3e0ac060U, 0xbffc51b93f3cdcc2U, 0xbf1cbab73f969770U, 0xbd1bc4e9bf9cba25U,
  0x3fac342e3e2cd65aU, 0x40b862233ead0cd5U, 0xbcf9ba96bf0fcadfU, 0x40464fedc00b1694U,
  0x3eab91c54053c6aeU, 0xc0105155bfad0506U, 0xbf1e90313d40b01dU, 0x3ea1333b40b972fdU,
  0xbff580573e1f1982U, 0xbdbd7c703f5cd3eeU, 0xc0c4b742bf67924cU, 0xbe9aaf5740f92ab2U,
  0x3fa3f50c3ec13a9cU, 0xbe942ec83e8f9155U, 0x3f183a95bfa069a5U, 0xbd4eaed6bde4fec2U,
  0x3eb94904c0993cfdU, 0xbe9d5a44c0bb0026U, 0x3fc53ffebf40dae9U, 0xbe93bdf740e6f8b0U,
  0xbffe9532c0bf814dU, 0x3f12f31a3ed7af29U, 0xbfee48073ab8f688U, 0xc01c69eebdba5473U,
  0xbe16913ebf9da4bcU, 0xc0aeb6ad3e2600f6U, 0x40838f72c0bf8217U, 0xbfcc83d1beaa240eU,
  0x3f0ca03c3d6740ceU, 0x3f8a2ce23f3a8876U, 0xbdea9db7be77976eU, 0xc00c5fa1c01b5056U,
  0xbc9e4ca4be6fbc7dU, 0x3edc43843ea82af7U, 0xbe7ca5b8beb37c2eU, 0xc109cee53b5a4fccU,
  0xc01fa3eac03d76d3U, 0xbea9d334bf2d48eeU, 0x408c334ebf097692U, 0xbfc6e4663f0be040U,
  0xbfa8b390c015e37fU, 0x3fd7c0963f97b682U, 0x408e9e723ece4ef0U, 0x3e97a795bf80a334U,
  0xbf3afd1cbf731bf2U, 0xbfebd974c099bad9U, 0xbf8670e03e2c8a1eU, 0xc09075293e542108U,
  0xbe9f330dbfb89a45U, 0x3f0f13dd3eb2110cU, 0xbe6b78783f53d71aU, 0xbfbeb71abf530f9eU,
  0x3fda6570c09a2588U, 0xbf1c22b43f0a5a00U, 0x3fa3ea653d7ed731U, 0xbf7bada6c01cf13fU,
  0xbfbb73b3bf25a056U, 0xbf1fbf52bb893493U, 0xc06d1da33fcd0b1dU, 0x3fc5b630bf8be408U,
  0xbca6f5c53e118e73U, 0x3dfc5e243e5f4aa8U, 0xc06893f8c11ea6f6U, 0xbf345258bfec64b9U,
  0x40d32c9a3f986584U, 0xc096e99a3eb54db9U, 0x3f4f74d5bef20a42U, 0xc12dd46c40219584U,
  0xbfaa2dd9410e5ef6U, 0x3ebe9e0bbf7aac58U, 0xc0e4c786beba3146U, 0x3f494291c034c344U,
  0xbfbfc255bfad25dbU, 0x3f51ab54beb1092bU, 0x3f548fe83f59d1c1U, 0xbe8406ee409a26f5U,
  0x3f205c4a3f8b4158U, 0x3ed94ef33cb6077bU, 0xc03010acc05856fcU, 0xc0725c1abeaa85e3U,
  0x3e31d38cbf8a99c0U, 0xc00cb006c0c8d773U, 0xbf4a173ec08574d4U, 0x3fb39c74c1502171U,
  0x3e85071b3f17f7d3U, 0xc0ea9ac6bec3ea52U, 0xc11881273fa4d09bU, 0x3fa8f6cbc01af190U,
  0xc01240713f36e3faU, 0x3f792b5ac07a83c8U, 0x406927e7bd6dbbc4U, 0x3f290bdbc0934eb5U,
  0xbef4ef633f310de0U, 0x401d74963f0ddbc0U, 0xbec730b7bf8b13cdU, 0x3e62045a400e27aeU,
  0xbf56dc8fbf8cf8e5U, 0x3f8b259fbf29e1f6U, 0xc0a6a8ccbe9c2739U, 0xbf025febbfc104e9U,
  0x3f1867d5c00fa056U, 0xc109f8aebf34e2c5U, 0xc10393703e8f0a36U, 0xbebc23fb3f93b8ccU,
  0x3f9b60a2bf98f2c9U, 0x3fe49d10c0a4ae81U, 0xbe6d81cfc00b7f96U, 0xbf5201d5c0b25cd8U,
  0x3ef81b4b3dabc9b0U, 0xbdedea8cc1807ea6U, 0xc0294d89bd0d932aU, 0xc0299528c1062e20U,
  0x3f08808c400f6449U, 0xc0c657c1c0285cc8U, 0xbfec49aa3f56e893U, 0x3f42a55ac00424b4U,
  0x40002164c10e4323U, 0xbe99ab8abf2a0659U, 0x40304c563d5c002bU, 0xbec93800bea94512U,
  0x3e12e7e9bfdafcefU, 0x3f9139ce403cff95U, 0x403934f2c086be65U, 0xbd6f921abee75b09U,
  0x3f231198bee24de3U, 0xbd1ba76abf0c1532U, 0x3ee81fe7bea7429dU, 0xc09504a3bef2d3e0U,
  0x40b0c688bed82867U, 0xc11000b8bed5daf4U, 0xbe224bf5bd7fbeb1U, 0x40814acec09c22d9U,
  0x3e0ea34dbfd3662fU, 0xbf01cff83f0e865eU, 0x40b776b5c0c0831cU, 0xbcf63fff40077952U,
  0x3ed6803dbe0b0e81U, 0x3de8997ebe0ca5caU, 0xbede901f3f9c1f18U, 0x3edd45ca40d02601U,
  0x3f7427ce3f4142d5U, 0x3f884accc0834b52U, 0x4069129ac0beca21U, 0xbf0ac034bfbbb1ebU,
  0xbf5cc6083db64dd2U, 0xc0c058f13da78616U, 0x3e343cb23fce2f08U, 0x3f4579b1c0ffb656U,
  0xbf017c96be7fd979U, 0x4054b18d4093ae03U, 0x404a6045bcc51f55U, 0xbfce36113f76329eU,
  0xc0d07fb93f8de87bU, 0x3ed1235c3edd1f61U, 0x409e6189bd86269bU, 0x3f83b9403f8bff43U,
  0x3e9f37253f18a822U, 0x3ef4a303be0dbe15U, 0xc0136b9e3f041c0cU, 0x3f42e86cc0898580U,
  0xbf24afe6bf8a5d1eU, 0xbf864f303fb4e826U, 0xc0a7bf063ee5843bU, 0x3f3d3290c153e21eU,
  0x3f253ba440ae7208U, 0xc077080c3d9efbe0U, 0xc111685b3e6d2e1bU, 0x3f575f4c3f4b0c79U,
  0xbf2320733e239c25U, 0xbfdeea33bf7fdba9U, 0xc04e803abe67d646U, 0xc0376ca2c11d0359U,
  0xbbb923c23dd03da5U, 0x3ec0fdc1c0d001ceU, 0xc0a6d7f7be500dd3U, 0x3f881ae1c126feb1U,
  0xbd445e123fc3bd3cU, 0xc025e2e73ded16bfU, 0xbf54b9b9be99f5fdU, 0x3f4900f0bf61372dU,
  0x407a2a283e339174U, 0xc06e00b7bf5c7610U, 0xc08a8baabda80cd6U, 0xbfad909a40bc81c8U,
  0x3e8c710c3d98fd78U, 0x3ff826383ff793baU, 0x410a05adbed94521U, 0x3f2786453e09409bU,
  0x3f6751793ded5e9bU, 0x400c76993f210738U, 0x3fc0dc764161cfa8U, 0xbf759ee2c0b0eab4U,
  0x40a204ef3e13ccaeU, 0x40da762d3f2ae525U, 0xc0dd3038be7a9c93U, 0x40813163beb142ffU,
  0x3ee1973740cc2efbU, 0xbe9f4e5740bcb290U, 0x4098101abf9d5e3fU, 0xbfa8b8bc3f0cbf67U,
  0x3fa0aa813f179e67U, 0x3ed8c7f040093460U, 0x3ddb9c90bddb59e0U, 0x3f6be0e2beeb9e16U,
  0x3f774a533e3857b1U, 0x3ee187833f58e798U, 0x3fd22e163daf24e7U, 0x3fe47f493f7ae478U,
  0xbe0d119bc0458bdaU, 0x3f2bf379c0d7b67aU, 0xbf987c824048ca05U, 0x3f7b6e0540b2a4a9U,
  0xbe980026be9fcdd3U, 0x4159d874bff8dd30U, 0x40eec6ddbe3da721U, 0xbf6153f43ef47e6fU,
  0x4011a9623f38cbf3U, 0x3e14e8263f3c02b4U, 0xc0e7a6703fa3e06aU, 0x3e2ea9f5c0a76459U,
  0xbe28696e3d0b0cd0U, 0xc108d189bf0f7f58U, 0xbe57a4223d6601aaU, 0x3f74411c4113b496U,
  0x3ec1d50b3def82ddU, 0x3ec0a40b3d5efd26U, 0x3fe3441d3fab5e52U, 0x400c2071c02ed900U,
  0xbf484f2d413b3c09U, 0x3f90d8843f9585daU, 0x40e3b1e63e554b6bU, 0x3f83b8993fe75024U,
  0x3f9ec21e3f8037a1U, 0x3f3749013fda08b6U, 0x3e3c0a873fc55ee7U, 0x3e4aecad405bdc42U,
  0xbd32c00fbffbe991U, 0x3e246c4fc014680cU, 0x3fcaf67dbea5b966U, 0x40e1390340544626U,
  0xbf56a8c03faa8d98U, 0xc02921363e03b157U, 0xbddc9dc3bf746f02U, 0xbfcc2f8abfb68447U,
  0x4047cf4440deb762U, 0xc0a9ecaebf09e4c0U, 0xc065043dbe887a17U, 0xbf9c7c9dbf93b35dU,
  0x3f22b5b63e663327U, 0xc07dd31bbf8d1d02U, 0x3ff6630f3ef73a24U, 0xbd5cb1a7bfdc4cabU,
  0x3f84eb58bc4bae59U, 0x3f138b54be8069fcU, 0xc040a07a40b0c96bU, 0xc0a1beacbfdd40cfU,
  0x4099397c3e48e39aU, 0x405bfef0c0dec552U, 0xbf27f79abee2e077U, 0x40bee737c0a49de1U,
  0x3e0536834108fa33U, 0xc028ef483ffd3b12U, 0xc04618983fab806fU, 0xc043750f3eea7423U,
  0x3deb50a33f44c22fU, 0xbf878e873f937b75U, 0x3e3cf94e3f8bf95fU, 0xc016628b3e8c4ee9U,
  0xbeee16b8bfde8aaaU, 0xc0276a1c3f326b71U, 0x3fa51d103fc0adc7U, 0x3fb21befbf5f7479U,
  0x3fadc3cec0338af8U, 0xc058334dc0c7475fU, 0x3f40fee3bf91909cU, 0xbe0131594122e939U,
  0xbf2fe063c01b6a98U, 0x41002250c07de8f4U, 0x412bdff7bfe02b9fU, 0xc0207df5bf018dd1U,
  0x4064cfe03e703fd4U, 0xc0167b9f3eb10749U, 0xbee39a6d3f3df2c3U, 0x3dc72d5ebfc03618U,
  0x3e920c99bf8584f1U, 0x3f9b7b3a3e27a453U, 0xbe34fcaebef902d5U, 0xc01a94364148ecf9U,
  0xbfd0e090bf0c98a0U, 0x3ed1ef41bfbb7311U, 0x3eb8f4993f75e5b4U, 0xc0356585400282e2U,
  0xc0f21da34014c457U, 0xc06ca7983db6252dU, 0x40f2a186bd0e8174U, 0xbdb339933ee3e2a9U,
  0xbf9c346fbfb8d605U, 0xbf91f6204010e02dU, 0x3eb276bb3f92eee1U, 0x3f1fe8b6410748ddU,
  0xbfb6fde6c018b59eU, 0xbf43ce2040f4ed30U, 0x3e09c2eb3db92679U, 0xc035bfab409104b9U,
  0xbe0edc03c08c353eU, 0x3f882792be01cf0eU, 0x3f85b96abf813b80U, 0xbed302003e46c18cU,
  0xc0ca93da3f356b62U, 0xc06ab8b6bf8e4a09U, 0xc03c14debde0e075U, 0x3efda35fc10b3562U,
  0x3d7ecfd33e89c70eU, 0xc0992305c0bb5a58U, 0x3ef9971bbef67009U, 0xbe8ae9c13fc103e5U,
  0xbf4c9e7d3ef5383dU, 0xc028a61fbe87016fU, 0x409873b140a0548fU, 0xbdd16e25bd4a6c16U,
  0xc1183c44bfb05e7cU, 0x404898ddc0634521U, 0xbfa8b6543f56e4d6U, 0x4059e1583e9a3e35U,
  0x3ecd0f6ec10430a6U, 0x3db51c56c09671acU, 0x40f66c6d3ffa4a45U, 0xbe0e09c53fe6f326U,
  0xc06ca9143e0d49d0U, 0xbea8bd953e0118bbU, 0x3fdb601abfff053dU, 0x3f0a6304c1a27ed8U,
  0x3e33e199c07b9127U, 0xbf305aba3f519d24U, 0x3f1da78ebf309986U, 0x3fa2f8813f7a160cU,
  0x3e8a6eb73e4dab9fU, 0x40fcbb213f5256ddU, 0xbf61ef0ac0ecb10eU, 0xc0238c994141e83aU,
  0xbf4df87e3f0be536U, 0x40f96061bf46f490U, 0x3f0d07183f1333dbU, 0x3ea9dcfc3f3a2201U,
  0x3f162ff63f54d634U, 0x3f0a9333bd330e88U, 0xc000fa7bc0362397U, 0xbee2ddfe3fcae635U,
  0xbe1f8e4abedfeed5U, 0xc0a808f9bf10bb84U, 0x3f1f0e173f968815U, 0xbf30dcccb8ee3940U,
  0x3f837d0b3e152f3cU, 0x3f06e176bf3fca9fU, 0x3e7b32dec020930bU, 0xbf12d5ed406f148dU,
  0xc052ecf740125b3aU, 0x3ff210c73f2a749aU, 0x40279d24bf83e2b5U, 0xbf06b935bf434ddbU,
  0xbeaac5e83ecb0492U, 0xbf3ec0b23ef03413U, 0x3ecbcc02c021da7cU, 0x3fb34fba405e3c33U,
  0x3ecd0b0dc006ea5bU, 0x3e5eae92c0af3ecdU, 0xbeb596753e08f239U, 0xc0d3366f402fed8dU,
  0x3ece2f7541504d4cU, 0x3ee64a573fffe696U, 0xbff645343f4dada8U, 0xbf5ab2f73e8188baU,
  0x405c8d80be7817dcU, 0xbf686a93bf8ef7b9U, 0x3eb1d48e3d18112cU, 0xbddecfcac110227cU,
  0x3f1ff726bf7b3be0U, 0x40848cb2406b67c0U, 0xc018c149bf30df2cU, 0xbf518f453e831077U,
  0x402e99583edf9d3bU, 0xbe1a76d63eb3e0e4U, 0x3eeb552640aafd4eU, 0x3f538eb9bf7760c3U,
  0xc0299ab53f89e4c4U, 0xbe6c8c7c40054a10U, 0xc0b0ef23bf076c38U, 0x4042705a3faf54a9U,
  0xbe98e781bf851899U, 0x3ea43d29c078e0c3U, 0x4026989d401957c3U, 0xbf722b933ff91cf3U,
  0xbefeefafbdfe50cdU, 0x3fe94cf83f4e82c3U, 0xbcd60acdbe8c383fU, 0xbec7629a409dc503U,
  0x3ff699df3f365be9U, 0xbf1b7c833f966ea1U, 0x405921e1c04c4a33U, 0x3e425a5abfaf4ec3U,
  0xc0865320bf12a4a6U, 0xc094159ec0c78fdeU, 0xbf8196993ce39550U, 0x4029f5b8be168e96U,
  0x3f6f984d3ec17419U, 0x409ab14dc10037f5U, 0x40d0f1ec3ab1889aU, 0x3f1199cd3fb96db9U,
  0x40829a503fa8e2c6U, 0x3e9990de3e9f8cd1U, 0xc13d0e293f383570U, 0x3fb18acec01b092dU,
  0xbe81922c3f00317bU, 0xbff38f2b3f0c3337U, 0xbfed0cd43f8b8b0aU, 0xbec1d4543fd06160U,
  0x3f2bac1b3ee53553U, 0x3fac0d45bdcd86c6U, 0xbf9be196bf1e3b8dU, 0x401a39f8c10c2f75U,
  0x40247d2b405f6b62U, 0xbf0a2c183e897498U, 0x40a7c0383eb3d38dU, 0x400373093fcd0a05U,
  0x40192437bcc05a28U, 0xbf8786c33fe0a95cU, 0xc0470915c029a31cU, 0x3fa5b9cbbcb77472U,
  0xbddf734a3fc29487U, 0x3fc8ac31c004625fU, 0xbf2b5c313d9f39acU, 0xbf06593c401522d5U,
  0x3df6f449c039f8a5U, 0xbf47db4d3e96cf8eU, 0x3dc7866bc0161a84U, 0xbd9fe3723d8199c5U,
  0xc042c696c072392aU, 0x4005dff740068ebcU, 0xbf766d903e86d7f4U, 0xbe84012ac0498509U,
  0x3f100ca2bf1aac26U, 0xc03fe16bc015b390U, 0xc1445f6abf73a345U, 0xc082c958bdd3a1e3U,
  0xbf74f6babeb5e5d6U, 0xc0046f68be923d63U, 0x3f7ba5c0417e6cd5U, 0x3c1bacb63e9d200cU,
  0x3fd85a8dc077b1c2U, 0xbfef7f99c06378c9U, 0x404a74e5c02e5066U, 0x409f4da8bdb6fe0fU,
  0xbf066894411404adU, 0x3d2d79503e228e9cU, 0x40bdf55fbf78cac3U, 0x3f54e8a53f34f0fdU,
  0xbff44d44bf2720fdU, 0x3e5c4188bf505ebfU, 0xc04cdf72c02eaa40U, 0xbfa34197c033661cU,
  0xc09289a3be204126U, 0xbf7a5bce3f011919U, 0xc02e8e63402c38a1U, 0x3ccd6a8dbef32444U,
  0xbf628f84be8a8d99U, 0xbfbee5f2c167582aU, 0xbd941669c0589982U, 0xc00f36be4155aa61U,
  0xbf3e5ddac02825b4U, 0x4099f4c44100f717U, 0x4103ecef3cf34397U, 0x3fe5e6c93f0f661cU,
  0xbf98ae60bfda5193U, 0x3f51fe9d3ecf24bbU, 0x413d8cd5bce71e69U, 0xbff5858440a5d6b1U,
  0xbe7fadc9be707a6aU, 0xbead497f3f447d98U, 0x3f23a620be7438d3U, 0x400f5906c0233664U,
  0x3e9a64dd3f44ec15U, 0xbf28a0bebf0cda1eU, 0x3f9b152bbfb2d8a4U, 0xbe0dbd5b3f977c31U,
  0xc03f48d140bff5d1U, 0x3df862eebf32ea46U, 0xc0030b5fbe1bf61cU, 0xbf7ce756bfc4d4ffU,
  0xbfa248da3f460c9aU, 0x3f22c3f73fae12feU, 0x4087f1ecbf4cc9a4U, 0xbd80274cc0bcbcedU,
  0xbfbe346b3e9d56afU, 0xbfae46d8c0c080e0U, 0x4000eb5cbe82fb14U, 0x3eed3f81be233787U,
  0x3eccb0663f35c308U, 0xbf91c3463f3a729fU, 0xbe2e4aaac108dfe6U, 0xbf1771fcbe4f2ab9U,
  0xc039d525c04658a6U, 0xbeb27e3ebf3e8951U, 0x3d807d62bd4ec75eU, 0xbf2d01a63fa0994cU,
  0xbd214560bc5e75bfU, 0x3f18cccdbe9d37e9U, 0x4087c149bf2b5a1cU, 0xc0e173503de0c139U,
  0xc1101f8c3e8fa9b9U, 0x3e9f1639bfaee9e1U, 0xbf8911dbbf1fba84U, 0xbd7700babfe45245U,
  0x3ed5de64c0023389U, 0xbfc1a1df4030c4d2U, 0xbf066d253da52e6eU, 0x3fe79b0bc00858f5U,
  0x3f06e6143facb1d0U, 0x3d9d7db63fc61262U, 0x3f21cdc7becd3578U, 0xc031015fbf4d34baU,
  0x3f15b07e3e9722e7U, 0xbf8c7e81c10e47c9U, 0x3f1a4c84c0540eabU, 0x3e993b83c14dfdb0U,
  0xc11f39aebeb17a9bU, 0x3f71051e3fddc22fU, 0x400abe95be53bff3U, 0x3f1ca1763faab0e4U,
  0x3e2e7ec0c08d93cdU, 0x3f21890e4044aad0U, 0x3e91f2d13fb9c09fU, 0xbfcc24a340242673U,
  0xc01d3f3fbead0144U, 0x3feef294c0a8dd6dU, 0x3fc823b3be845c1fU, 0xbf9f9f453f70e842U,
  0xc032f236c0de3e94U, 0xbff20406bf0a8280U, 0x40e97cfc3e061ca8U, 0xc02ac1f9bfad03a6U,
  0x3dcc3233bf523f1bU, 0xbfd7db43bfa73695U, 0xbf43c523be9ea703U, 0xbea3a9074013c22dU,
  0xbddc16143e06435aU, 0xbf98e451bf84cb5fU, 0xbe42fe673f3f3941U, 0xc001ed6b401132bbU,
  0x3f5acf71bfbf65dbU, 0x3f871484be0652b5U, 0x3f1b3df7bdaac810U, 0xc07467ebbfdd037aU,
  0xbf0831263d44c55aU, 0xbf72e77b3f23b9caU, 0xbe7f7bd93fcaf95cU, 0x3ee88691bf1ad6ccU,
  0xbf35631dbd26e044U, 0xbcc7cb61401d48c2U, 0xbfbb29a33e19743cU, 0x3fa56d0a3e6dcb60U,
  0x3e58303cc0353881U, 0xbf281c1e3e89f7f1U, 0x3ec2492abf82b2d8U, 0x3f8238ccbf8ebb61U,
  0x3e992e5740d73cceU, 0xc08261503e40908bU, 0x40b51b2a3caaf618U, 0xbf257722411dac9eU,
  0x3e86d9abbe83d24fU, 0x409706ef40886a18U, 0x3f53992fc0a3b725U, 0xbd66f0503f93868dU,
  0xc002d52cbf5072baU, 0x3f9ee915bf262a05U, 0x3fc5e136c1412950U, 0xc037bb833f5ccf7bU,
  0xbffbc8debe70f4f5U, 0x4038190c409da7a5U, 0x3f6899d1bec73784U, 0xc0dcae9c3e607df6U,
  0xbe8eb3bc3faa6365U, 0x3e49f2db3f769120U, 0xc01df16bc0a8ca8dU, 0x3c5c68b74025bd9cU,
  0x4016d16fbe70d078U, 0x3f41dd2abf5db92cU, 0xc01d7c0abf13d03bU, 0x3f9b7a74bfd313a2U,
  0xbfcb13e43ecd1d9dU, 0x40112ad73f36de3dU, 0xc02008d0406c8621U, 0x3f5c77a13f06b308U,
  0x3f881202bf4c0d21U, 0xc0cffb603f8b4dd5U, 0xbef68fee409cb015U, 0xbefd7304c1628ae9U,
  0xbf226089bfa0893aU, 0xc0ded857c08261d9U, 0xc1095e5f3f5a3643U, 0xc041abdebe8b281aU,
  0x3fc441b5bf892d88U, 0xbf9e6bb9be69670bU, 0x40c3da7c3e182cd4U, 0xbf54d3e73eac6cceU,
  0x3ed522e73ee5ef60U, 0x40056a3abe55db39U, 0xbfd6fe64bf482befU, 0x3fad7a4940869caaU,
  0x3ade597b3e71e8ebU, 0xbe7b1bb5bd3feed7U, 0x3e97a2173f75f804U, 0xc0b0daa2c0eab0f2U,
  0x40955410c1028373U, 0x409679143e8915a0U, 0x40b36fb3bfb080a5U, 0xc00d6c85bd901631U,
  0x3ef64cd73e8b4a7aU, 0x3fc53784bd59b4d0U, 0x400f2f0c3fc6f3f1U, 0x3eb38fa141027481U,
  0x3f04e91b4030f804U, 0xbf3bc66a40831b8aU, 0x3f816550bf7bf6a5U, 0x3fd546b540b74f52U,
  0x3da2b13fbefd3efeU, 0xc10eabaec04b0c88U, 0xbf698d163f0869d7U, 0x3dba66d9bff76fa0U,
  0x3fbd8506c14b8c33U, 0xbe3c1d5fbf2cbe6eU, 0xbf86bcec3e37f4c8U, 0xbf91f782bfafd8d6U,
  0xbf0f5550c01cf647U, 0x404e025440003a40U, 0xc098f78ebff52e49U, 0xbfd77b123eaec998U,
  0xbf49fee93d25c3a8U, 0xc03aeb6dbf3141aaU, 0xbf0b5063c0a74246U, 0xc08cb4643e5e59a1U,
  0xc0aebcbe3ef196caU, 0xc10d195f3f7deedcU, 0xbecec7f5bef53e3eU, 0xbfdc2c59bf89115dU,
  0xbf102b19c023f943U, 0x3e019d12bfb781efU, 0xc03461adc0164d1bU, 0x3de2ee06c03cb361U,
  0x3f13b34fbeca104bU, 0x3f1570b3c02ef20fU, 0x3ef2d5413eaed137U, 0x3f36c19cc15062f6U,
  0xc01c01a33e080015U, 0x3eaab08bc03bf651U, 0xbf5b63ba3e95fa4dU, 0xbf8becacbf700566U,
  0xbf340f47bf0184d9U, 0xc1546fe93f9f920dU, 0xbe7f13bb406a0eadU, 0x3e8279783eaba1e9U,
  0x3f2cba653fbb5ecfU, 0xbe8500983f877de2U, 0x402f38e3be902f75U, 0x3cbaa9953efa1ea7U,
  0xc0e2d83a3f095a28U, 0x3f8812553e01174cU, 0x418b218a3f137ac4U, 0xbce2db77bfc1ed3bU,
  0xbf02fe4a3e8fb327U, 0xc043c627bdf1061aU, 0xbf8da22e3f28c6f3U, 0x3f13f8cdc1566534U,
  0xbf61b120bfaf61bcU, 0x3eba4f503f2fb79bU, 0x3fbc5d47bfc4cfc7U, 0x3fc10a4dc0095bb3U,
  0xbfdc0aa2c02250d4U, 0xbf98c3323f937adeU, 0xc15ac5ba3daa128cU, 0x3ef63e4d3f6353beU,
  0x3fdd24cbbd33d3b7U, 0xbfe21d17c06dcb9dU, 0xc09eaea540477ae1U, 0xbe8e4d90c142a4c6U,
